'<pad>_'
'<EOS>_'
'[CLS]_'
'[SEP]_'
'[MASK]_'
'[UNK]_'
'\u\u\uINDENT\u\u\u_'
'\u\u\uDEDENT\u\u\u_'
'\u\u\uLONGTOKEN\u\u\u_'
'\u\u\uINVALID\u\u\u_'
'\u\u\uNL\u\u\u_'
'\u\u\uNLCHAR\u\u\u_'
'\u\u\uCR\u\u\u_'
'\u\u\uENDMARKER\u\u\u_'
'\u\u\uCARET\u\u\u_'
'\u\u\uNEWLINE\u\u\u_'
' ^_'
'\u\u\uNEWLINE\u\u\u'
',_'
'._'
')_'
'(_'
'=_'
''^_'
':_'
''_'
'_'
'\u^_'
'self_'
'\u\u\uINDENT\u\u\u '
'[_'
']_'
'\u\u\uNLCHAR\u\u\u^'
'\\^_'
'"^_'
'.^_'
'"_'
'^_'
'x^_'
'def_'
'       _'
'if_'
':^_'
'-^_'
'1_'
'0_'
',^_'
'           _'
'return_'
'import_'
's^_'
'the^_'
'/^_'
'1^_'
'        ^_'
'    ^_'
'+_'
'0^_'
'in_'
'a^_'
'   _'
'None_'
'}_'
'{_'
'name_'
'2^_'
'==_'
'3^_'
'for_'
'from_'
'2_'
'\u\u^_'
'True_'
'to^_'
'(^_'
'u^_'
'-_'
'"""^_'
'of^_'
'get\u^_'
'n^_'
'               _'
'd^_'
'path_'
's_'
'data_'
'"""_'
'*_'
'id_'
'False_'
'else_'
'assert^_'
'is^_'
'4^_'
'e^_'
'i_'
'not_'
'5^_'
'print_'
'b^_'
'%^_'
'x_'
'%_'
'name^_'
'class_'
'                   '
'test\u^_'
'os_'
'8^_'
')^_'
'6^_'
'f^_'
'\u\u\uINDENT\u\u\u	'
'c^_'
'=^_'
'value_'
'for^_'
'in^_'
'id^_'
'3_'
'add\u^_'
'len_'
'type_'
'r^_'
'args_'
'9^_'
'  ^_'
'str_'
'               ^_'
'7^_'
't^_'
'and^_'
'append_'
'::^_'
'Error_'
'            ^_'
'@_'
'np_'
'set^_'
'00^_'
'get_'
'list_'
'type^_'
'Equal_'
'\u\u\uEOS\u\u\u_'
'get^_'
'key_'
'is\u^_'
'4_'
'is_'
'file_'
'url_'
'cls_'
'assert_'
'A^_'
'as_'
'     ^_'
'<^_'
'f_'
'be^_'
'format_'
'and_'
'+=_'
'elif_'
'result_'
'd_'
'not^_'
'file^_'
'''_'
'r_'
'config_'
'except_'
'data^_'
'y_'
'5_'
'e_'
'ns^_'
'try_'
'**_'
'request_'
'init\u\u_'
'{^_'
'dict_'
'int_'
'`^_'
'The^_'
't_'
'or^_'
'p_'
'info_'
'[^_'
'test^_'
'time_'
'to\u^_'
'raise_'
'join_'
'>^_'
'text_'
'\u_'
'from^_'
'with^_'
'c_'
'/_'
'sys_'
'set\u^_'
'on^_'
'y^_'
'p^_'
'a_'
'Test^_'
'i^_'
'value^_'
'line_'
'size_'
'n_'
''\\^_'
'index_'
'kwargs_'
'response_'
'm^_'
'list^_'
'method_'
';^_'
'C^_'
'models_'
'this^_'
'\u\u\uCR\u\u\u^_'
'param^_'
'params_'
'with_'
'or_'
'range_'
'that^_'
'Q^_'
's\u^_'
'://^_'
'o^_'
'S^_'
'!=_'
'db_'
'|^_'
'D^_'
'Field_'
'*^_'
'""_'
'user_'
'b_'
'6_'
'write_'
'if^_'
'xe^_'
'xd^_'
'dir_'
'+^_'
'an^_'
'm_'
'xc^_'
'xf^_'
'>_'
'as^_'
'v^_'
'param_'
'item_'
'Get^_'
'client_'
'v_'
'xb^_'
'node_'
'context_'
'k_'
'new\u^_'
'g^_'
'Name_'
'obj_'
'module_'
'db^_'
'by^_'
'8_'
'class^_'
'	_'
'user^_'
'xa^_'
'add^_'
'10_'
'string^_'
'ing^_'
'``^_'
'}^_'
'@^_'
'Type^_'
'parser_'
'com^_'
'count_'
'msg_'
'filename_'
'l^_'
'json_'
'create\u^_'
'django^_'
'object_'
'I^_'
'model_'
'message_'
'B^_'
'options_'
'="^_'
''/^_'
'."""_'
'set_'
'."_'
'key^_'
'default^_'
'split_'
'file\u^_'
'True^_'
'Value^_'
'      ^_'
'open_'
'w^_'
'Field^_'
'Exception_'
'T^_'
'10^_'
'	^_'
'7_'
'are^_'
'log_'
'E^_'
'l_'
'pass_'
'state_'
'object^_'
'P^_'
'http^_'
're_'
'fields^_'
'all^_'
'max\u^_'
'logger_'
'from\u^_'
'it^_'
'     _'
'   ^_'
''''^_'
'models^_'
'default_'
'int^_'
'<_'
'code_'
'.'_'
'utils_'
'F^_'
'"\\^_'
'data\u^_'
'string_'
'row_'
'		_'
'h^_'
'    _'
'This^_'
'output_'
'#^_'
'status_'
'error_'
'Type_'
''''_'
'return^_'
'logging_'
'ed^_'
'</^_'
'values_'
'M^_'
']^_'
'start_'
'isinstance_'
'20^_'
'X^_'
'9_'
'path^_'
'datetime_'
'',^_'
'app_'
'time^_'
'k^_'
'label_'
'j_'
'length_'
'L^_'
'new^_'
'shape_'
'text^_'
'will^_'
'session_'
'res_'
'":^_'
'max^_'
'Qt^_'
'Data^_'
'user\u^_'
'32^_'
'name\u\u_'
'01^_'
'val_'
'help_'
'N^_'
'group_'
'number^_'
'),^_'
'title_'
''%^_'
'array_'
'assert\u^_'
'version_'
'Set^_'
'str^_'
'--^_'
'check\u^_'
'version^_'
'∅^_'
'G^_'
'List_'
'Name^_'
'lambda_'
'debug_'
'size^_'
'z^_'
'test_'
'File^_'
'main^_'
'S_'
'out_'
'float_'
'To^_'
'settings_'
'num\u^_'
'query_'
'keys_'
'at^_'
'items_'
'R^_'
'fields_'
'event_'
'en^_'
'action_'
'Not^_'
'root\u^_'
'g_'
'no^_'
'H^_'
'can^_'
'02^_'
'If^_'
'List^_'
'mock_'
'command_'
''-^_'
'cmd_'
'update_'
'parent_'
'12^_'
'objects_'
'table_'
'ID^_'
'0.0_'
'64^_'
'"%^_'
'function^_'
''--^_'
'tf_'
'input^_'
'add_'
'output^_'
'map_'
'error^_'
'Y^_'
'date_'
'>>>^_'
'use^_'
'Returns^_'
'url^_'
'n\u^_'
' _'
'U^_'
'mode_'
'o_'
'property_'
'>'_'
'current\u^_'
'u_'
';_'
'close_'
'mock\u^_'
'super_'
'",^_'
'on\u^_'
'h_'
'django_'
'html^_'
'w_'
'Error^_'
'content_'
'py^_'
'read_'
'code^_'
'Id^_'
'output\u^_'
'field_'
'11^_'
'start^_'
'port_'
'pos_'
'Key^_'
'V^_'
'match_'
'input\u^_'
'File_'
'replace_'
'start\u^_'
')'_'
'default\u^_'
'while_'
'width_'
'filter_'
'files_'
'image^_'
'Time^_'
'create^_'
'you^_'
''\u^_'
'status^_'
'd\u^_'
'used^_'
'headers_'
'run_'
'method^_'
'plt_'
'parse\u^_'
'O^_'
'list\u^_'
'image_'
'in\u^_'
'numpy_'
'argument_'
'https^_'
'node^_'
'index^_'
'Char^_'
'names_'
'api_'
'description_'
'all\u^_'
'User^_'
'one^_'
'None^_'
'has^_'
'y\u^_'
'Base^_'
'foo^_'
'date^_'
'100_'
'title^_'
'main_'
'message^_'
'length^_'
'group^_'
'er^_'
'token_'
'c\u^_'
'current^_'
'16^_'
'update\u^_'
'results_'
'description^_'
'root_'
'end_'
'by\u^_'
'func_'
'should^_'
'instance_'
'host_'
'config^_'
'log^_'
'Case_'
'):^_'
'input_'
'env_'
'json^_'
'with\u^_'
'continue_'
'line^_'
'Object^_'
'base_'
'target_'
'T_'
'all_'
'body_'
'num_'
'Data_'
'api^_'
'run\u^_'
'const_'
'X_'
'which^_'
'random_'
'color_'
'model^_'
'strip_'
'const^_'
'return\u^_'
'max_'
'String^_'
'request^_'
'"/^_'
'No^_'
'idx_'
')"_'
'has\u^_'
'de^_'
'tag_'
'number_'
'1.0_'
'form_'
'ID_'
'types_'
'org^_'
'Z^_'
'server^_'
'es^_'
'table^_'
'out^_'
'dtype_'
'state^_'
'values^_'
'argv_'
'self^_'
'source^_'
'Text_'
'Id_'
''.^_'
'          ^_'
'files^_'
'			_'
'only^_'
'?^_'
'instance^_'
'unittest_'
'String_'
'expected\u^_'
'':^_'
'q^_'
'lines_'
'z_'
'true^_'
'&^_'
'info^_'
'source_'
'run^_'
'void^_'
'22^_'
'given^_'
'/'_'
'must^_'
'ids_'
'K^_'
'x\u^_'
'end^_'
''\u\u^_'
'ret_'
'Add^_'
'read\u^_'
'20_'
'field^_'
'wx_'
'server_'
'make\u^_'
'03^_'
'have^_'
'W^_'
'patch_'
'level_'
'template_'
'register\u^_'
'exists_'
'Is^_'
'Text^_'
'core_'
'A_'
'log\u^_'
'format^_'
'db\u^_'
'when^_'
'q_'
'Date^_'
'Create^_'
'()^_'
'header_'
'df_'
'15^_'
'update^_'
'Path_'
'uint^_'
'prefix_'
'Dict_'
'r\u^_'
'config\u^_'
'view_'
'model\u^_'
'for\u^_'
'		^_'
'Gui_'
'entry_'
'find\u^_'
'status\u^_'
'last\u^_'
'conf_'
'image\u^_'
'break_'
'Model_'
'op_'
'        _'
').^_'
'copy_'
'12_'
'dict^_'
'       ^_'
'read^_'
'D_'
'offset_'
'bool^_'
'base\u^_'
'30^_'
'www^_'
'load\u^_'
'array^_'
'xff^_'
'check^_'
'18^_'
'connect_'
'label^_'
'>=_'
'username_'
'num^_'
'execute_'
'page_'
'password_'
'height_'
'Value_'
'host^_'
'"--^_'
'content^_'
'project^_'
'Item_'
'option_'
'conn_'
'empty^_'
't\u^_'
'port^_'
'For^_'
'\u\u'_'
'module^_'
'expected_'
'}'_'
'other_'
'first^_'
'16_'
'resp_'
''<^_'
'13^_'
'methods_'
'er_'
'Attribute^_'
'14^_'
'lower_'
'last^_'
'min_'
'link^_'
'j^_'
'sum_'
'float^_'
'found^_'
'req_'
'yield_'
'util_'
'create_'
'utf^_'
'do^_'
'ed_'
'call_'
'txt^_'
'command^_'
'04^_'
'exit_'
'print\u^_'
'lib_'
'ly^_'
'type\u^_'
'save_'
'p\u^_'
'"-^_'
'target^_'
'Key_'
'example^_'
'address_'
'result^_'
'count^_'
'doc_'
'node\u^_'
'api\u^_'
'pytest_'
'item^_'
'stdout_'
'Widget_'
'11_'
'Parser_'
'base^_'
'\\\\^_'
'ctx_'
'function_'
'name\u^_'
'timeout_'
'API^_'
'and\u^_'
'address^_'
'nodes_'
'Model^_'
'target\u^_'
'build\u^_'
'min^_'
'application^_'
'action^_'
'password^_'
'%(^_'
'Column_'
'page^_'
'time\u^_'
'handler_'
'virtual_'
':`^_'
'Test_'
'ng^_'
'}"_'
'fn_'
'arg_'
'False^_'
'axis_'
'Address^_'
'al^_'
'200_'
'<=_'
'65^_'
'column_'
'task_'
'Return^_'
'N_'
'08^_'
'any^_'
'Node_'
'event^_'
'ax_'
'ing_'
'store^_'
'Node^_'
'0.5_'
'Request^_'
'client^_'
'returns^_'
'cursor_'
'attr_'
'metadata_'
'email_'
'bar^_'
'of\u^_'
'subprocess_'
'In^_'
'write^_'
'e\u^_'
'find_'
'255_'
'long^_'
'dest_'
'uuid_'
'ref_'
'err_'
'now_'
'Handler_'
'service_'
'using^_'
'Ns3^_'
'05^_'
'key\u^_'
'errors_'
'out\u^_'
':"_'
'search_'
'as\u^_'
'View_'
'service^_'
'delete_'
'each^_'
'S\u^_'
'pop_'
'group\u^_'
'frame_'
'send\u^_'
'id\u^_'
'cache_'
'Default^_'
'to_'
'end\u^_'
'python^_'
'Config^_'
'required_'
'17^_'
'=%^_'
'Python^_'
'post_'
':%^_'
'dir^_'
'15_'
'connection_'
'project_'
'Object_'
'24^_'
'math_'
'exception_'
'environ_'
'source\u^_'
'manager_'
'80^_'
'up^_'
'parameters_'
'socket_'
'\u\u_'
'search^_'
'cfg_'
'tree_'
'startswith_'
'or\u^_'
''"_'
'25^_'
'$^_'
'var_'
'specified^_'
'License^_'
'->_'
'|_'
'HTTP^_'
'a\u^_'
'mode^_'
'write\u^_'
'col_'
'Message^_'
'labels_'
'color^_'
'opts_'
'record_'
'C_'
'Raises_'
'future\u\u_'
'word_'
'&'_'
'my^_'
'png^_'
'form^_'
'constructor_'
'06^_'
'Config_'
'null^_'
'json\u^_'
'-%^_'
'ip_'
'os^_'
'root^_'
'L_'
'50^_'
'resource^_'
'build^_'
'st_'
'error\u^_'
'query^_'
'delete\u^_'
'Box_'
'plot_'
'client\u^_'
'network^_'
'07^_'
'show^_'
'path\u^_'
'tag^_'
'spec_'
'".^_'
'required^_'
'Py^_'
'del_'
'element_'
'widget_'
'**^_'
'order^_'
'position_'
'31^_'
'blank_'
'tags_'
'19^_'
'created^_'
'J^_'
'channel_'
'load_'
'Info^_'
'Foreign^_'
'remove_'
'url\u^_'
'min\u^_'
'query\u^_'
'location_'
''/'_'
'21^_'
'dirname_'
'link_'
'Size_'
'Group^_'
'm\u^_'
'attrs_'
'From^_'
'but^_'
'step_'
'stderr_'
'flags_'
'directory^_'
'Invalid^_'
'email^_'
'->^_'
'enumerate_'
'es_'
'token^_'
'Image^_'
'74^_'
'ip^_'
'B_'
'was^_'
'into^_'
'next\u^_'
'Item^_'
'auth^_'
'device^_'
'filter\u^_'
'other^_'
'print^_'
'delete^_'
'encode_'
'do\u^_'
'response^_'
'Number^_'
'use\u^_'
'raw\u^_'
'..^_'
'your^_'
'xml^_'
'Args^_'
'sleep_'
'/%^_'
'f\u^_'
'All^_'
'request\u^_'
'Info_'
'('^_'
'Request_'
'more^_'
'           ^_'
'Y_'
'level^_'
'['^_'
'30_'
'09^_'
'50_'
'Event^_'
'find^_'
'URL^_'
'order_'
'import^_'
'equal_'
'null_'
'Response_'
'admin^_'
'getattr_'
'related^_'
'event\u^_'
'23^_'
'Button_'
'project\u^_'
'full\u^_'
'         ^_'
'new_'
'load^_'
'32_'
'total\u^_'
'Set_'
'ion^_'
'common_'
':'_'
'local^_'
'User_'
'batch\u^_'
'we^_'
'blank^_'
'Mock_'
'no\u^_'
'">^_'
'Integer^_'
'optional^_'
'By^_'
'search\u^_'
'∅∅^_'
'stream_'
'local\u^_'
'src^_'
'graph_'
'attribute^_'
'line\u^_'
'resource_'
'app^_'
'meta_'
'img_'
'61^_'
'You^_'
'tuple_'
'mask_'
'where^_'
'total^_'
'40^_'
'next_'
'stats_'
'Equals_'
'grid_'
'message\u^_'
'left^_'
'URL_'
'right^_'
'callback_'
'Form_'
'Service^_'
'State_'
'tests^_'
'device_'
'us^_'
'"\u\u^_'
'le^_'
'100^_'
'2\u^_'
'Message_'
'28^_'
'...^_'
'NAME_'
'Client_'
'compile_'
'information^_'
'check_'
'call^_'
'location^_'
'Class^_'
'Check^_'
'server\u^_'
'Client^_'
'!^_'
'uri_'
'staticmethod_'
'33^_'
'&_'
'parse_'
'var^_'
'points_'
'service\u^_'
'1\u^_'
'Label_'
'map^_'
'Of^_'
'queue_'
'object\u^_'
'69^_'
'global_'
'columns_'
'results^_'
'arg^_'
'setup_'
'Content^_'
'\u\u"_'
'init\u^_'
'auth_'
'instance\u^_'
'make^_'
'core^_'
'sorted_'
'old\u^_'
'html_'
'Size^_'
'34^_'
'field\u^_'
'view^_'
'Index_'
'><^_'
'template^_'
'requests_'
'system^_'
'Meta^_'
'rows_'
'properties_'
'child_'
'Up_'
'37^_'
'Core_'
'std^_'
'>\\^_'
'ops_'
'Input^_'
'parameter^_'
'{}^_'
'zeros_'
'does^_'
'text\u^_'
'13_'
'block^_'
'Base_'
'item\u^_'
'able^_'
'bool_'
'"<^_'
'option^_'
'layer_'
'Response^_'
'inputs_'
'window_'
'73^_'
'resource\u^_'
'scope_'
'task^_'
'filter^_'
'on_'
'E_'
'---------------^_'
'table\u^_'
'show\u^_'
'Element_'
'Time_'
'72^_'
'='^_'
'l\u^_'
'valid^_'
'decode_'
'29^_'
'86^_'
'content\u^_'
'td^_'
'template\u^_'
'same^_'
'context^_'
'dumps_'
'>"_'
'save\u^_'
'42^_'
'.\\^_'
'schema_'
'task\u^_'
'label\u^_'
'60_'
'99^_'
'sub_'
'48^_'
'36^_'
''{^_'
'44^_'
'classmethod_'
'database^_'
'access^_'
'],^_'
'Status^_'
'70^_'
'src_'
'63^_'
'90^_'
'parent^_'
'Logger_'
'Path^_'
'verbose_'
'zh^_'
'Auto^_'
'xml_'
'Ptr^_'
'directory_'
'then^_'
'format\u^_'
'bytes_'
'parameters^_'
'fname_'
'ed\u^_'
'div^_'
'Action_'
'35^_'
'block_'
'username^_'
'next^_'
'unsigned^_'
'addr_'
']'_'
'handle_'
'script^_'
'left_'
'matrix_'
'g\u^_'
'81^_'
'R_'
'net^_'
're^_'
'post\u^_'
'like^_'
'options^_'
'000^_'
''.'_'
'38^_'
'system_'
'14_'
'width^_'
'year_'
'∅∅∅^_'
'groups_'
'Parameters^_'
'objects^_'
'st^_'
'process\u^_'
'names^_'
'account^_'
'filename^_'
'hash_'
'match^_'
'process^_'
'hasattr_'
'remove\u^_'
'verbose\u^_'
'Layout_'
'System^_'
'train\u^_'
'dataset_'
''#^_'
'folder_'
'volume^_'
'P_'
'settings^_'
'import\u^_'
'ext_'
'range^_'
'first\u^_'
'Open^_'
'60^_'
'job^_'
'driver_'
'body^_'
'New^_'
'Command_'
'show_'
'limit_'
'45^_'
'27^_'
'In_'
'admin_'
'26^_'
'Server^_'
'style^_'
'exc_'
'fake\u^_'
'failed^_'
'so^_'
'1000_'
'DIR_'
'domain_'
'available^_'
'82^_'
'false^_'
'66^_'
'pattern_'
'point^_'
'point_'
'F_'
'Device^_'
'/"_'
'41^_'
'Index^_'
'loads_'
''∅'_'
'payload_'
'extend_'
'M_'
'job_'
'stack_'
'remove^_'
'pd_'
'migrations_'
'open^_'
'loc_'
'				_'
'0._'
'not\u^_'
'dt_'
'score_'
'It^_'
'ui_'
'mean_'
'generate\u^_'
'two^_'
'may^_'
'lib^_'
'by_'
'value\u^_'
'process_'
'call\u^_'
'49^_'
'bin^_'
'(%^_'
'Manager_'
'75^_'
'         _'
'OS^_'
';&#^_'
'route_'
'init^_'
'button_'
'vars_'
'"\u^_'
'ts_'
'0x00_'
'tests_'
'My^_'
'layout_'
'67^_'
'forms_'
'send^_'
'arguments^_'
'Frame_'
'per^_'
'reverse_'
'On^_'
'train_'
'∅∅∅∅∅^_'
'Output^_'
'messages_'
'39^_'
'"{^_'
'Dir_'
'Line^_'
'stop_'
'Tag^_'
'factory_'
'register_'
'metadata^_'
'Update^_'
'              ^_'
'app\u^_'
'some^_'
'post^_'
'GET^_'
'init_'
''\u\u\uCARET\u\u\u^'
'after^_'
'session^_'
'style_'
'column^_'
'await_'
'box_'
'render\u^_'
'')^_'
'Class_'
'Event_'
'temp_'
'csv^_'
'scale_'
'56^_'
'volume_'
'parse^_'
'Import^_'
'92^_'
'dev^_'
'top^_'
'89^_'
'configuration^_'
'dictionary^_'
'Image_'
'View^_'
'zip_'
'select^_'
'abs_'
'sample\u^_'
'include^_'
'result\u^_'
'DEFAULT\u^_'
'timestamp_'
'State^_'
'io_'
'render_'
'tmp^_'
'DB^_'
'page\u^_'
'With^_'
'64_'
'paths_'
'!"_'
'tmp_'
'rate_'
'views_'
'struct_'
'shape^_'
'buf_'
'see^_'
'temp\u^_'
'88^_'
'player_'
'case^_'
'job\u^_'
'buffer_'
'href^_'
'args^_'
'display^_'
'b\u^_'
'features_'
'users^_'
'element^_'
'25_'
'77^_'
'43^_'
'full^_'
'pi_'
'exceptions_'
'single^_'
'IO_'
'tr_'
'than^_'
'53^_'
'ing\u^_'
'unit_'
'71^_'
'insert_'
'},^_'
'types^_'
'Version^_'
'rule_'
'68^_'
'te^_'
'date\u^_'
'interface^_'
'domain^_'
'{}"_'
'∅∅∅∅^_'
'attributes_'
'header^_'
'G_'
'right_'
'profile_'
'engine_'
'parts_'
'auth\u^_'
'encoding_'
'section_'
'47^_'
'first_'
'Source^_'
'google^_'
'dim_'
'','_'
'index\u^_'
'words_'
'Property_'
'`.^_'
'Simple^_'
'"'_'
'95^_'
'state\u^_'
'valid\u^_'
'54^_'
'operator_'
'commit_'
'0.1_'
'def^_'
'returned^_'
'position^_'
'save^_'
'class\u^_'
'Box^_'
'active^_'
'rtype^_'
'argparse_'
'52^_'
'device\u^_'
'change^_'
'91^_'
'images^_'
'game_'
'ref^_'
':\\^_'
'tokens_'
'cache^_'
'package^_'
'Http^_'
'24_'
'Sub^_'
'obj^_'
'network_'
'Count_'
'Log^_'
'outfile_'
'Table^_'
'choices_'
'host\u^_'
'repo_'
'events_'
'7701^_'
'IP^_'
'iter_'
'called\u^_'
'alpha_'
'row^_'
'83^_'
'response\u^_'
'Read^_'
'items^_'
'uid_'
'double^_'
'78^_'
'extra\u^_'
'channel^_'
'Search^_'
'84^_'
'desc_'
'flag_'
'fp_'
'58^_'
'integer^_'
'97^_'
'1._'
'i\u^_'
'FROM^_'
'sql_'
'expected^_'
'Table_'
'per\u^_'
'18_'
'current_'
'copy^_'
'v\u^_'
'55^_'
'validate\u^_'
'Ipv^_'
'sub^_'
'85^_'
'==^_'
'class\u\u_'
'98^_'
'variable^_'
'POST^_'
'96^_'
'connection^_'
'46^_'
'62^_'
'store_'
'home^_'
'']"_'
'opt_'
'51^_'
'entry^_'
''-'_'
'59^_'
'non^_'
'pool_'
'action\u^_'
'version\u^_'
'sample^_'
'∅∅∅∅∅∅^_'
'Boolean^_'
'argument^_'
'Resource^_'
'properties^_'
'children_'
'send_'
'its^_'
'"∅"_'
'csv_'
'Start^_'
'site_'
'IO^_'
'Count^_'
'var\u^_'
'ex_'
'warning_'
'static^_'
'random\u^_'
'been^_'
'rs_'
'exp_'
'module\u^_'
'87^_'
'login^_'
'></^_'
'handle\u^_'
'counter_'
'before^_'
'grid^_'
'Policy_'
'See^_'
'author^_'
'translate_'
'ion_'
'An^_'
'Command^_'
'primary^_'
'volume\u^_'
'TYPE\u^_'
'ds_'
'SELECT^_'
'auto^_'
'meta^_'
'seq_'
'93^_'
'unit^_'
'char^_'
'gl^_'
'record^_'
'total_'
'cluster^_'
'filters_'
'ce^_'
'loop_'
'            _'
'X\u^_'
'Delete^_'
'plugin_'
'tools_'
'mark_'
'94^_'
'pk_'
'file\u\u_'
'block\u^_'
've^_'
'indices_'
'parent\u^_'
'async_'
'ns_'
'signal_'
'79^_'
'Context_'
'constants_'
'font^_'
'sa_'
'Code^_'
'help^_'
'===============^_'
'And^_'
'Run^_'
'orm^_'
'E\u^_'
'between^_'
'select_'
'my\u^_'
'resources_'
'updated^_'
'57^_'
'{}'_'
'17_'
'already^_'
'-=_'
'github^_'
'Main^_'
'tuple^_'
'PATH_'
'namespace_'
'at_'
'sort_'
'76^_'
'xrange_'
'kw_'
'Color_'
'layers_'
'ar^_'
'*'_'
'ip\u^_'
'40_'
'params^_'
'Dialog_'
'net_'
'collections_'
'users_'
'raw^_'
'I_'
'pack_'
'cache\u^_'
'category_'
'global\u^_'
'category^_'
'th^_'
'reader_'
'T\u^_'
'writer_'
'video^_'
'invalid^_'
'pygame_'
'Map^_'
'network\u^_'
'unique^_'
'keys^_'
'gtk_'
'added^_'
'src\u^_'
'font_'
');^_'
'details^_'
'setup\u^_'
'author_'
'Query^_'
'LOG_'
'actions_'
'tags^_'
'px^_'
'diff_'
'contains^_'
'xfe^_'
'urls_'
'unicode_'
'command\u^_'
']"_'
'tree^_'
'height^_'
'info\u^_'
'Window_'
'profile^_'
'expr_'
'basename_'
'repr_'
'http\u^_'
'JSON^_'
'prefix^_'
'!'_'
'bot_'
'fd_'
'Web^_'
'tmp\u^_'
'js^_'
'Failed^_'
'bytes^_'
'val^_'
'timeout^_'
'21_'
'One^_'
'menu_'
'tag\u^_'
'provided^_'
'weights_'
'policy_'
'//^_'
'classes_'
'obj\u^_'
'sequence^_'
'urllib_'
'stream^_'
'database_'
'step^_'
'nt^_'
'containing^_'
'port\u^_'
'called^_'
'cur_'
'D\u^_'
'glob_'
'platform_'
'container_'
'contents_'
'units_'
'me^_'
'graph^_'
'plugin^_'
'without^_'
'program^_'
'-\\^_'
'cell_'
'array\u^_'
'et^_'
'order\u^_'
'Meta_'
'public^_'
'stop^_'
'\\"^_'
'commands_'
'session\u^_'
'ext^_'
'layer^_'
'limit^_'
'packages_'
'plot\u^_'
'             ^_'
'img^_'
'("^_'
'sample_'
'active_'
'Qt_'
'plot^_'
'contrib^_'
'debug^_'
'number\u^_'
'rate^_'
'Argument^_'
'abspath_'
'based^_'
'pass^_'
'char_'
'git^_'
'span^_'
'Max^_'
'success_'
'raw_'
'button^_'
'row\u^_'
'raises_'
'comment_'
'br^_'
'∅∅∅∅∅∅∅^_'
'valid_'
'rect_'
'attribute_'
'account_'
'Map_'
'images_'
'mod_'
'Element^_'
'se^_'
'also^_'
'..."_'
'Group_'
'auto\u^_'
'"#^_'
'shutil_'
'>>_'
'Integer_'
'reference^_'
'Point_'
'OR^_'
'login_'
'----------^_'
'datetime^_'
'Instance^_'
'tr^_'
'running^_'
'2.0_'
'able_'
'display_'
'window^_'
'Use^_'
'arr_'
'primary\u^_'
'sub\u^_'
'arguments_'
'Implemented^_'
'comment^_'
'"'^_'
'Window^_'
'op^_'
'sqrt_'
'map\u^_'
'Line_'
'vals_'
'descriptor_'
'states_'
'script_'
'fig_'
'property^_'
'Factory_'
'matrix^_'
'Public^_'
'about^_'
'defined^_'
'unicode\u^_'
'ERROR^_'
'ch^_'
'wait\u^_'
'extension_'
'nodes^_'
'io^_'
'cmd\u^_'
'\\'^_'
'dir\u^_'
'modules_'
'selected^_'
'none^_'
'click_'
'login\u^_'
'weight_'
'W_'
'thread_'
'rs^_'
'outputs_'
'etc^_'
'controller_'
'static_'
'NAME^_'
''[^_'
'it_'
'func^_'
'header\u^_'
'report^_'
'el^_'
'exception^_'
'frame^_'
'part^_'
'la^_'
'Page^_'
'elem_'
'str\u\u_'
'there^_'
'AS^_'
'either^_'
'absolute\u^_'
'site^_'
'now^_'
'main\u^_'
'timestamp^_'
'variables_'
'day_'
'Function^_'
'random^_'
'Status_'
'view\u^_'
'"/"_'
'batch^_'
'product^_'
'pid_'
'round_'
'xcd^_'
'19_'
'edit^_'
'following^_'
'General^_'
'exist^_'
'Application_'
'upper_'
'messages^_'
'22_'
'lock_'
''∅∅'_'
'string\u^_'
'role_'
'cv2_'
'dist_'
'doc^_'
'temp^_'
'points^_'
'dev_'
'video\u^_'
'suffix_'
'xbf^_'
'access\u^_'
'control^_'
'Session^_'
'document^_'
'Action^_'
'Network^_'
'DEBUG_'
'install^_'
'\u%^_'
'part_'
'ts^_'
'one_'
'ref\u^_'
'samples_'
'Current^_'
'le_'
'WHERE^_'
'under^_'
'o\u^_'
'put_'
'mapping_'
'exists^_'
'AND^_'
'Q_'
'display\u^_'
'xfc^_'
'context\u^_'
'cur\u^_'
'dataset^_'
'cluster_'
'<<_'
'Point^_'
'filepath_'
'Task^_'
'language^_'
'param\u^_'
'Note^_'
'delta_'
'old^_'
'Exception^_'
'xfd^_'
'V_'
'Language^_'
'form\u^_'
'convert\u^_'
'contrib_'
'Cisco^_'
'attributes^_'
'Please^_'
'loss_'
'builder_'
'∅∅∅∅∅∅∅∅^_'
'conf^_'
'Instance_'
'remote\u^_'
'Tree^_'
'word^_'
'box^_'
'offset^_'
'li^_'
'Packet^_'
'endswith_'
'size\u^_'
'23_'
'cols_'
'seconds^_'
'html\u^_'
'dict\u^_'
'img\u^_'
'global^_'
'prop_'
'over^_'
'fake^_'
'py_'
'xef^_'
'menu^_'
'storage^_'
'uuid^_'
'gen\u^_'
'credentials_'
'hash^_'
'vm_'
'fail^_'
'msg^_'
'build_'
'custom^_'
'found_'
'passed^_'
'interface_'
'Widgets_'
'Runtime^_'
'choice_'
'entries_'
'			^_'
'report_'
'localhost^_'
'Result^_'
'feature\u^_'
'token\u^_'
'ok_'
'Filter^_'
'Result_'
'column\u^_'
'col^_'
'K_'
'space^_'
'ff^_'
'xml\u^_'
'callback^_'
'Mixin_'
'xfb^_'
'tion^_'
'feature^_'
'setup^_'
';'_'
'Array_'
'xcf^_'
'enabled^_'
'cluster\u^_'
'iteritems_'
'folder^_'
'dot_'
'Build^_'
'xbd^_'
'match\u^_'
'details_'
'lang_'
'ch_'
'interval_'
'master^_'
'props_'
'stat_'
'operation^_'
'Ref^_'
'fmt_'
'st\u^_'
'depth_'
'day^_'
'xbe^_'
'ind_'
'txt_'
'work^_'
'IN^_'
'meta\u^_'
'entity_'
'top_'
'xdf^_'
'specific^_'
'media^_'
'(\\^_'
'groups^_'
'head_'
'reshape_'
'container^_'
'Parse^_'
'redirect_'
'package\u^_'
'regex_'
'P\u^_'
'Edit^_'
'Tests^_'
'elements_'
'$'_'
'compute^_'
'h\u^_'
'region_'
'short^_'
'red^_'
'weight^_'
'Found^_'
'element\u^_'
'remote^_'
'strftime_'
'board_'
'str\u^_'
'IOS^_'
'role^_'
'xae^_'
'msg\u^_'
'package_'
'End^_'
'center^_'
'open\u^_'
'))^_'
'Net^_'
'="_'
'/{^_'
'xed^_'
'threading_'
'help\u^_'
'active\u^_'
'Descriptor_'
'collection_'
'k\u^_'
'matplotlib_'
'Process^_'
'helper_'
'need^_'
'Connection^_'
'Stream^_'
'Code_'
'empty_'
'policy^_'
'isfile_'
'='_'
'Token^_'
'web^_'
'R\u^_'
'defaults_'
'year^_'
'sep_'
'colors_'
'docs^_'
'XR^_'
'Entry_'
'rules_'
'len^_'
'500_'
'App^_'
'frame\u^_'
'Project^_'
'}\\^_'
'backend_'
'Str_'
'Thread_'
'success^_'
'download^_'
'train^_'
'00_'
''$^_'
'links_'
'symbol_'
'thread^_'
'w\u^_'
'vector^_'
'fs_'
'timedelta_'
'move^_'
'Array^_'
'aa^_'
'schema^_'
'.0_'
'coords_'
'off^_'
'duration_'
'player^_'
'indent_'
'255^_'
'\u'_'
'admin\u^_'
'ic^_'
'score^_'
'al_'
'xdb^_'
'xce^_'
'H_'
'Int^_'
'Callback^_'
'link\u^_'
'xeb^_'
'Control^_'
'common^_'
'ct_'
'if\u^_'
'Load^_'
'`,^_'
'batch_'
'NOT^_'
'gen_'
'handle^_'
'xbb^_'
'pos^_'
'80_'
'matches_'
'custom\u^_'
'section^_'
'clear_'
'Write^_'
'Many^_'
'200^_'
'][^_'
'Page_'
'res\u^_'
'rc_'
'seed_'
'sort\u^_'
'compute\u^_'
'":"^_'
'screen_'
'SIZE_'
'TEST\u^_'
'memory^_'
'language_'
'summary_'
'Do^_'
'six_'
'down^_'
'norm_'
'xfa^_'
'flag^_'
'Template^_'
'missing^_'
'dirs_'
'mean^_'
'child^_'
'configuration_'
'install\u^_'
'select\u^_'
'da^_'
'XML^_'
'scale^_'
'cannot^_'
'xbc^_'
'xaf^_'
'rule^_'
'errors^_'
'supported^_'
'ids^_'
'xcc^_'
'events^_'
'Example^_'
'sequence_'
'seconds_'
'ctypes_'
'Form^_'
'jpg^_'
'Header^_'
'deleted^_'
'ne^_'
'//_'
'xcb^_'
'protocol_'
'tasks_'
'xaa^_'
'xee^_'
'extra^_'
'finally_'
'proto_'
'agent_'
'","^_'
'sum^_'
'eval_'
'Remove^_'
'\u\u\uCARET\u\u\u^_'
'0000^_'
'31_'
'once\u^_'
'xad^_'
'export^_'
'Link^_'
'xba^_'
'functions^_'
'np^_'
'steps_'
'Custom^_'
'et_'
'lines^_'
'Windows^_'
'1024_'
'disk^_'
'extract\u^_'
'month_'
'xde^_'
'repr\u\u_'
'xec^_'
'kind_'
'rb^_'
'move_'
'Software^_'
'generate^_'
'KEY_'
'404_'
'private^_'
'shell_'
'Session_'
'ble^_'
'res^_'
'Input_'
'2015^_'
'storage_'
'only_'
'xdd^_'
'cloud^_'
'multiple^_'
'mp^_'
'∅∅∅∅∅∅∅∅∅∅∅∅∅∅∅^_'
'count\u^_'
'want^_'
'include\u^_'
'hostname_'
'Number_'
'changed_'
'un^_'
'im_'
'':'_'
'exc\u^_'
'where_'
'traceback_'
'endpoint_'
'second^_'
'randint_'
'dialog_'
'python_'
'region^_'
'support^_'
''\u'_'
'icon_'
'Show^_'
'xda^_'
'Color^_'
'wait_'
'numpy^_'
'Job^_'
'Free^_'
'ation^_'
'Mode^_'
'here^_'
'"[^_'
'buffer^_'
'calls_'
'record\u^_'
'Button^_'
'42_'
'Dict^_'
'whether^_'
'Qgs^_'
'Level_'
'attr^_'
'enabled_'
'stream\u^_'
'xab^_'
'float32_'
'KEY^_'
'x1_'
'reason_'
'el_'
'arg\u^_'
'v1_'
'done^_'
'Interface^_'
'direction_'
'md^_'
'edge_'
'ON^_'
'Unit^_'
'Frame^_'
'up_'
'distance_'
'pool^_'
'Multi^_'
'cc^_'
'ca^_'
'Server_'
'sock_'
'123^_'
'POST_'
')\\^_'
'90_'
'queue^_'
'Parameter^_'
'TYPE_'
'axis^_'
'simple^_'
'dict\u\u_'
'download\u^_'
'angle_'
'p1_'
'xdc^_'
'arange_'
'views^_'
'findall_'
'Ag^_'
'Port^_'
''(^_'
'***************^_'
'iprot_'
'entry\u^_'
'400_'
'.,^_'
'note^_'
'document_'
'sh^_'
'variable_'
'GNU^_'
'skip^_'
'Params_'
'Protocol^_'
'Method^_'
'initial\u^_'
'received^_'
'boolean^_'
'oprot_'
'http_'
'Function_'
'alias_'
'channel\u^_'
'transform_'
'back^_'
'C\u^_'
'change\u^_'
'validate_'
'testing_'
'stop\u^_'
'vm\u^_'
'"$^_'
'identifier_'
'um^_'
'cmd^_'
'times_'
'xea^_'
'axes_'
'sess_'
'dump_'
'age^_'
'resources^_'
'methods^_'
'sp_'
'xac^_'
'abc^_'
'one\u^_'
'transport_'
'nullable_'
'alpha^_'
'warnings_'
'Unknown^_'
'Manager^_'
'warn_'
'split\u^_'
'color\u^_'
'actual_'
'verify\u^_'
'literals_'
'Mode_'
'Label^_'
'proxy_'
'library^_'
'US^_'
'free^_'
';"_'
'128_'
'counts_'
'features^_'
'th_'
'28_'
'days_'
'plugin\u^_'
'nt_'
'Option^_'
'127^_'
'agent^_'
'history_'
's1_'
'?'_'
'different^_'
'pickle_'
'provider_'
'ord_'
'As^_'
'pre^_'
'wrapper_'
'space_'
'col\u^_'
'ID\u^_'
'both^_'
'initial^_'
'Tensor^_'
'usage_'
'blocks_'
'component^_'
'Obj_'
'binary\u^_'
'game^_'
'environment^_'
'owner_'
'bar_'
'nn_'
'tab^_'
'changed^_'
'cell^_'
'26_'
'int\u^_'
'N\u^_'
'"."_'
'Access^_'
'account\u^_'
'edges_'
'final\u^_'
'such^_'
'term_'
'no_'
'raise^_'
'labels^_'
'release_'
'requests^_'
'gen^_'
'xca^_'
'enable^_'
'common\u^_'
'binary^_'
'repo^_'
'fit_'
'release^_'
'metrics_'
'Property^_'
'Gtk_'
'Tree_'
'tf^_'
'icon^_'
'center_'
'repo\u^_'
'Ordered^_'
'cb_'
'Options_'
'Module^_'
'")^_'
'Filter_'
'fixture_'
'}/^_'
'protocol^_'
'ms^_'
'feature_'
'Service_'
'them^_'
'enum\u^_'
'unknown^_'
'flush_'
'SQL^_'
'created_'
'er\u^_'
'component_'
'extension\u^_'
'te_'
'Format^_'
'exit^_'
'top\u^_'
'setattr_'
'usr^_'
'me_'
'application_'
'Plugin^_'
'close^_'
'freq_'
'else^_'
'27_'
'ize_'
'tempfile_'
'prev\u^_'
'ignore^_'
'amount_'
'go^_'
'can\u^_'
'Host^_'
'word\u^_'
'Enum^_'
'Queue_'
'Version_'
'channels_'
'factor_'
'Validation^_'
'...'_'
'elements^_'
'cs_'
'Context^_'
'upload^_'
'.%^_'
'cb^_'
'basic^_'
'variables^_'
'Fake^_'
'case_'
'Description^_'
'child\u^_'
'z\u^_'
'tensor_'
'Layer_'
'append^_'
'cos_'
'ment^_'
'MAX\u^_'
'-------^_'
'proc_'
'256_'
'Raises^_'
'instead^_'
'tools^_'
'mat_'
'dbse_'
'Email^_'
'Local^_'
'Block^_'
'Attribute_'
'radius_'
'Bad^_'
'allow^_'
'wait^_'
'IC^_'
'Width_'
'ast_'
'q\u^_'
'∅∅∅∅∅∅∅∅∅^_'
'existing^_'
'Select^_'
's2_'
'they^_'
'cfg^_'
'normal^_'
'pos\u^_'
'connect^_'
'sort^_'
'ps_'
'slug_'
'Only^_'
'Storage^_'
'execute\u^_'
'bit_'
'flask_'
'Connection_'
'Tag_'
'register^_'
'Admin_'
'done_'
'CP^_'
'their^_'
'while^_'
'","_'
'stats^_'
'method\u^_'
'Auth^_'
'proxy^_'
'0001^_'
'other\u^_'
'Target^_'
'lat^_'
'Last^_'
'summary^_'
'Entry^_'
'ad^_'
'Serializer_'
'layer\u^_'
'report\u^_'
'original^_'
'Mac^_'
'FLAGS_'
'setter_'
'Optional_'
'A\u^_'
'Random^_'
'Menu^_'
'ng_'
'threshold_'
'long\u^_'
'hello^_'
'generated^_'
'astype_'
'chain_'
'Y\u^_'
'VERSION_'
'ge^_'
'2014^_'
'subject_'
'version\u\u_'
'ss^_'
'rec_'
'dx_'
'targets_'
'Vector^_'
'Log_'
'M\u^_'
'best\u^_'
'product_'
'single\u^_'
'this\u^_'
'FILE_'
'identifier^_'
'Float^_'
'Layer^_'
'zone^_'
'.\u^_'
'helpers_'
'Total^_'
'NULL^_'
'units^_'
'man^_'
'cli_'
'draw_'
'local_'
'Menu_'
'attr\u^_'
'nd^_'
'insert^_'
'background^_'
'func\u^_'
'OK^_'
'mask^_'
'PIPE_'
'vm^_'
'verbose^_'
'Change^_'
'entity^_'
'loader_'
'side\u^_'
'left\u^_'
'tables_'
'vector_'
'selected\u^_'
'records_'
'member_'
'fail_'
'Reference^_'
'head^_'
'When^_'
'parsed\u^_'
'amount^_'
'env^_'
'original\u^_'
'collection^_'
'Settings_'
'unique_'
'End_'
'Channel^_'
'Names_'
'Resource_'
'bit^_'
'dataset\u^_'
'ry^_'
'replace^_'
'HTML^_'
'author\u\u_'
'extensions_'
'IS^_'
'dst_'
'					_'
'Migration_'
'copy\u^_'
'inst_'
'op\u^_'
'classes^_'
'allow\u^_'
'packet_'
'Token_'
'namespace^_'
'Widget^_'
'master_'
'df^_'
'try^_'
'Variable_'
'DB_'
'expression^_'
'standard^_'
'∅'
'OK_'
'na^_'
'Make^_'
'0\u^_'
'ls_'
'pb2_'
'Location^_'
'plugins_'
'v2_'
'doc\u^_'
'ec^_'
'pt^_'
'Feature^_'
'sin_'
'Types_'
'keyword^_'
'cell\u^_'
'ignore\u^_'
'df\u^_'
'fill_'
'Length^_'
'Tool^_'
'generator_'
'Out^_'
'manager^_'
'graph\u^_'
'Copyright^_'
'strings^_'
'duration^_'
'complete^_'
'share^_'
'empty\u^_'
'access_'
'selection_'
'2016^_'
'pure\u^_'
'Utf8_'
'owner^_'
'reset\u^_'
'maximum^_'
'Level^_'
'Found_'
'card_'
'serialize_'
'Num^_'
'>=^_'
'eq_'
'columns^_'
'sys^_'
'metavar_'
'Policy^_'
'effect_'
'progress_'
'step\u^_'
'ype_'
'how^_'
'L\u^_'
'area_'
'person^_'
'Api^_'
'scipy_'
'ia^_'
'Volume^_'
'Date_'
'basis_'
'canvas_'
'move\u^_'
'interval^_'
'training^_'
'associated^_'
'kwargs^_'
'urllib2_'
'Bit^_'
'Programming^_'
'zero^_'
'scores_'
'control_'
'coord_'
'through^_'
'components_'
'Colour^_'
'ss_'
'at\u^_'
'chunk_'
'containing\u^_'
'Configuration^_'
'([^_'
'domain\u^_'
'split^_'
'non\u^_'
'put^_'
'ED^_'
'present^_'
'bucket_'
'queryset_'
'internal^_'
'con_'
'de_'
'unpack_'
'beta^_'
'less^_'
'clean\u^_'
'reset^_'
'invalid\u^_'
'yes^_'
'within^_'
'ame_'
'security^_'
'being^_'
'"(^_'
'usage^_'
'ent^_'
'css^_'
'draw^_'
'0.2_'
'services_'
'pattern^_'
'allowed^_'
't1_'
'Block_'
'Up^_'
'setting^_'
'delay_'
'ke^_'
'trans_'
'Password^_'
'll^_'
'sources_'
'desc^_'
'patterns_'
'ms_'
'um_'
'distance^_'
'Add_'
'tensorflow_'
'times^_'
'figure_'
'any_'
'Variable^_'
'ar_'
'include_'
'ok^_'
'isdir_'
'stack^_'
'secret^_'
'widget^_'
'Url_'
';\\^_'
'wb^_'
'3\u^_'
'software^_'
'instances^_'
'Register_'
'readline_'
'INFO_'
'2._'
'member^_'
'price_'
'?"_'
'tab_'
'seq\u^_'
'change_'
'ir_'
'Down_'
'K\u^_'
'topic_'
'pt_'
'Z_'
'Pos_'
'what^_'
'Abstract^_'
'gui_'
'pair_'
'unique\u^_'
'ee^_'
'currently^_'
'code\u^_'
'={^_'
'instances_'
'skip_'
'Stop^_'
'lst_'
'fh_'
'"∅∅"_'
'ra^_'
'listdir_'
'os\u^_'
'x2_'
'y1_'
'convert^_'
'Account^_'
'Buffer^_'
'pdf^_'
'could^_'
'ps^_'
'last_'
'Magic^_'
'}.^_'
'samples^_'
',-^_'
'modules^_'
'force^_'
'gz^_'
'Byte^_'
'pages_'
'45_'
'horizontal^_'
'win_'
'Settings^_'
'Optional^_'
'changes^_'
'Column^_'
'F\u^_'
'vertical^_'
'answer_'
'Profile^_'
'p2_'
'reset_'
'35_'
'templates^_'
'es\u^_'
'Save^_'
'Task_'
'Checker^_'
'player\u^_'
'via^_'
'right\u^_'
'sender_'
'blue^_'
'cf^_'
'val\u^_'
'define^_'
'apply\u^_'
'structure^_'
'Send^_'
'storage\u^_'
'related\u^_'
'subject^_'
'grid\u^_'
'push^_'
'handler^_'
'dependencies_'
'division_'
'google_'
'29_'
'Display^_'
'net\u^_'
'tool^_'
'secret_'
'75_'
''*'_'
'attrib_'
'just^_'
'timer_'
'Record^_'
'Container^_'
'repository^_'
'env\u^_'
'serialized\u^_'
'300_'
'lat_'
'Cannot^_'
'policy\u^_'
'container\u^_'
'master\u^_'
'33_'
'external^_'
'the\u^_'
'widgets_'
'Module_'
'ac^_'
'makedirs_'
'insert\u^_'
'function\u^_'
'extra_'
'sqlalchemy_'
'OF^_'
'/>^_'
'Enum_'
''*^_'
'GET_'
'Can^_'
'%.^_'
'area^_'
'NS^_'
'system\u^_'
'upload\u^_'
'u\u^_'
''"^_'
'provider^_'
'sent^_'
'Report^_'
'button\u^_'
'exp\u^_'
'mapping^_'
'runner_'
'O_'
'tasks^_'
'window\u^_'
'Cloud^_'
'Font_'
'ET_'
'gs_'
'``.^_'
'Edit_'
'unit\u^_'
'modified^_'
'CONF_'
'track^_'
'DATA_'
'Parameter_'
'entity\u^_'
'GL^_'
'ROOT_'
'unicode^_'
'cm_'
'another^_'
'draw\u^_'
'Layout\u^_'
'Popen_'
'orm_'
'reply_'
'co^_'
'ws_'
'theta_'
'hosts_'
'192^_'
'platform^_'
'specify^_'
'cr_'
'ui^_'
'mail^_'
'commands^_'
'36_'
'zip^_'
'projects^_'
'force\u^_'
'profile\u^_'
'services^_'
'Next^_'
'game\u^_'
'setdefault_'
'point\u^_'
'skip\u^_'
'cpp\u^_'
'branch_'
'GL\u^_'
'Print^_'
'rows^_'
'extension^_'
'email\u^_'
'Case^_'
'Order^_'
'dest\u^_'
'Cache^_'
'edge^_'
',\\^_'
'Hash^_'
'signature_'
'Usage^_'
'del^_'
'48_'
'period_'
'these^_'
'real^_'
'queue\u^_'
'Application^_'
'modify^_'
'jobs_'
'implemented^_'
'dims_'
'suite_'
'bind_'
'way^_'
'Could^_'
'ylabel_'
'en_'
'rank_'
'most^_'
'First^_'
'shared^_'
'Find^_'
'web_'
'functions_'
'=\\"^_'
'ist_'
'detail^_'
'dc^_'
'yaml_'
'gf_'
'At^_'
'ERROR_'
'low^_'
'oper^_'
'001^_'
'win^_'
'power^_'
'ng\u^_'
'All_'
'PATH^_'
'uri^_'
'speed_'
'Query_'
'cnt_'
'Num_'
'pi^_'
'mod^_'
'registry_'
'000000000000000^_'
'flags^_'
'history^_'
'reg_'
'bpy_'
'possible^_'
'Grid^_'
'Sets^_'
'many^_'
'se_'
'age_'
'rstrip_'
'should\u^_'
'rv_'
'tree\u^_'
'DESCRIPTOR_'
'author\u^_'
'itertools_'
'ab^_'
'tear^_'
'eq\u_'
'Database^_'
'pool\u^_'
'condition_'
'opt^_'
'otherwise^_'
'Information^_'
'testing^_'
'series^_'
'bits_'
'contact^_'
'zone_'
'Address_'
'Options^_'
'headers^_'
'yaml^_'
'additional^_'
'fs^_'
'Flow^_'
'option\u^_'
',"^_'
'track_'
'cat^_'
'public\u^_'
'rule\u^_'
'ones_'
'encoding^_'
'connection\u^_'
'parser^_'
'Min^_'
'rc^_'
'Missing^_'
'terms^_'
'Game^_'
'FF^_'
'actual\u^_'
'parameter_'
'snapshot^_'
'contain^_'
'fa^_'
'deepcopy_'
'hex_'
'called_'
'product\u^_'
'ipv^_'
'fetch\u^_'
'cost_'
'Bar_'
'Created^_'
'Agent^_'
'Details^_'
'Graph^_'
'destination^_'
'em^_'
'term^_'
'TYPE^_'
'Template_'
'\u{^_'
'apply^_'
'Socket^_'
'Title_'
'signal^_'
'Position_'
'entries^_'
'Sequence^_'
'34_'
'Child_'
'Rule^_'
'cd^_'
'real\u^_'
'equal^_'
'flow^_'
'Copy^_'
'etree_'
'vec_'
'mm^_'
'math^_'
'begin_'
'origin_'
'req\u^_'
'ports_'
'script\u^_'
'Icon_'
'Length_'
''∅∅∅'_'
'xpath_'
'Plugin_'
'∅∅∅∅∅∅∅∅∅∅^_'
'BASE\u^_'
'export\u^_'
'ty^_'
'old_'
'GPIO_'
'Or^_'
'handlers_'
'rt^_'
'"-"_'
'store\u^_'
'padding_'
'conf\u^_'
''='_'
'bad\u^_'
'pre\u^_'
'DATA\u^_'
'\u"_'
'revision_'
'dic_'
'execute^_'
'Output_'
'])^_'
'{"^_'
'correct^_'
'Call^_'
'cur^_'
'attribute\u^_'
'cs^_'
'marker_'
'green^_'
'clear^_'
'simple\u^_'
'driver^_'
'bad^_'
'2013^_'
'We^_'
'Member_'
'exit\u^_'
'Unicode^_'
'metric_'
'binary_'
'price^_'
'curr\u^_'
'ratio_'
'files\u^_'
'Category^_'
'margin^_'
'removed^_'
'trace_'
'0.01_'
'layout^_'
'seq^_'
'0x0_'
'branch^_'
'force_'
'setting_'
'devices_'
'formats_'
'Basic^_'
'Formatter_'
'ir^_'
'4'
'Admin^_'
'Mock^_'
'edit\u^_'
'xlabel_'
'dd^_'
'records^_'
'pyplot_'
'Enabled_'
'requires_'
'asyncio_'
'links^_'
'timezone_'
'final^_'
'ies^_'
'pack\u^_'
'clear\u^_'
'hook_'
'App_'
'spec^_'
'ers^_'
'world^_'
'team^_'
'actions^_'
'Row_'
'expect_'
'&#^_'
'backend^_'
'Var_'
'enter^_'
'because^_'
'']^_'
'wiki^_'
'menu\u^_'
'eval\u^_'
'ta^_'
'metadata\u^_'
'soup_'
'utils^_'
'logging^_'
'est^_'
'Source_'
'STRING_'
'hash\u^_'
'pointer^_'
'note_'
'bottom^_'
'ex^_'
'character^_'
'Msg_'
'swig\u^_'
'lang^_'
'snapshot_'
'rt_'
'middleware^_'
'dictionary_'
'err\u^_'
'variable\u^_'
'urlparse_'
'loop^_'
'3'
'/$'_'
'am^_'
'lower^_'
'Controller_'
'orig\u^_'
'cleaned\u^_'
'hostname^_'
'operator^_'
'rest\u^_'
'["^_'
'2017^_'
'qs_'
'KEY\u^_'
'Unable^_'
'static\u^_'
'Range^_'
'bin\u^_'
'Mozilla^_'
'ble_'
'                _'
'Tests_'
'ED_'
'bins_'
'browser_'
'kernel^_'
'256^_'
'err^_'
'Sample^_'
'Rect_'
'Metadata^_'
'stdin_'
'nd_'
'cmds_'
'ls^_'
'best^_'
'commit^_'
'Location_'
'70_'
'Cell^_'
'urls^_'
'std_'
'rules^_'
'ity^_'
'ds^_'
'Power^_'
'Document^_'
'screen^_'
'-'_'
'php^_'
'characters^_'
'transaction_'
'Utils_'
'rest^_'
'scene_'
'mesh_'
'ii_'
'].^_'
'cat_'
'keywords_'
'md_'
'bot^_'
'slice_'
'corresponding^_'
'kernel\u^_'
'this_'
'python\u^_'
''∅∅∅∅'_'
'ie^_'
'packages^_'
'+'_'
'fit^_'
'permissions^_'
'Empty^_'
'named^_'
'AA^_'
'pk^_'
''&^_'
'environment_'
'prob_'
'pred_'
'operation_'
'don^_'
'tk_'
'tx_'
'{\\^_'
'body\u^_'
'U_'
'safe\u^_'
'operations_'
'gmail^_'
'all\u\u_'
'site\u^_'
'Virtual^_'
'endpoint^_'
'Middleware^_'
'edge\u^_'
'dy_'
'FILE\u^_'
'words^_'
'll_'
'flow\u^_'
'API_'
'contents^_'
'al\u^_'
'99_'
'033^_'
'doesn^_'
'G\u^_'
':/^_'
'Almost^_'
'merge\u^_'
'Schema^_'
'ANY^_'
'virtual^_'
'Queue^_'
'Spec_'
'tensor^_'
'csv\u^_'
'128^_'
'65_'
'small^_'
'addr^_'
'kernel_'
'ting^_'
'loss^_'
'even^_'
'series_'
'ndarray^_'
'rxn_'
'uid^_'
'flow_'
'progress^_'
'pkg_'
'enum_'
'symbol^_'
'diff^_'
'.'''_'
'sh_'
'filters^_'
'previous^_'
'numbers^_'
'py\u^_'
'apps_'
'sure^_'
'country^_'
'matching^_'
''"'_'
'mp_'
'sphinx^_'
'Active^_'
'ce_'
'Title^_'
'pad_'
'Reaction^_'
'Files_'
'NO^_'
'Iterator^_'
'Static^_'
'dst\u^_'
'filenames_'
'readlines_'
'~^_'
'Post^_'
'ion\u^_'
'coordinates^_'
'place^_'
're\u^_'
'bounds_'
'sync^_'
'chr_'
'Register^_'
'share\u^_'
'bucket^_'
'NT^_'
'/(?^_'
'inputs^_'
'tmpdir_'
'strings_'
'cp^_'
'short\u^_'
'repository_'
'[%^_'
'rm^_'
'close\u^_'
'Int_'
''./^_'
'defaultdict_'
'lists^_'
'distribution^_'
'ut_'
'ter^_'
'plugins^_'
'console^_'
'audio^_'
'Graph_'
'|'
'scope^_'
'2012^_'
'would^_'
'CA^_'
'world_'
'55_'
'disk\u^_'
'topic^_'
'USER\u^_'
'retval_'
't2_'
'Attributes^_'
'citation_'
'Raw^_'
'Script^_'
'agent\u^_'
'iter\u^_'
'disable^_'
'Dialog^_'
'Binary^_'
'machine^_'
'distributed^_'
'locals_'
'Hello^_'
'debug\u^_'
'threshold^_'
'ff_'
'emit_'
'foo_'
'chars_'
'que^_'
'Standard^_'
'fit\u^_'
'constant_'
'fields\u^_'
'today_'
'Global^_'
'scale\u^_'
'missing\u^_'
'4\u^_'
'Constraint_'
'join^_'
'mod\u^_'
'ies_'
'sc_'
'uses^_'
'saved^_'
'Callback_'
'Changed_'
'analysis^_'
'none_'
'Handler^_'
'Val_'
'ro^_'
'control\u^_'
'/<^_'
'37_'
'stored^_'
'of_'
'us_'
'permission^_'
'Pin_'
'Expected^_'
'0x7'
'person_'
'generator^_'
'Does^_'
'sql^_'
'Cluster^_'
'":"_'
'selected_'
'title\u^_'
'y2_'
'dummy^_'
'There^_'
'nx_'
'installed^_'
'fo_'
'always^_'
'lock^_'
'Style^_'
'merge^_'
'Layout^_'
'period^_'
'Range_'
'role\u^_'
'fill^_'
'threads_'
'Bar^_'
'relative^_'
'ck^_'
'along^_'
'border^_'
'down_'
'later^_'
'slug^_'
'pairs_'
'got^_'
'backup^_'
'validation^_'
'running_'
'please^_'
'tar^_'
'sql\u^_'
'Proxy^_'
'STATUS\u^_'
'fr^_'
'paths^_'
'depth^_'
'41_'
'Values_'
'Directory^_'
'tion_'
'mean\u^_'
'Gets^_'
'nb\u^_'
'ma^_'
'mu_'
'bin_'
'white^_'
'Format_'
'args\u^_'
'ptr_'
'security\u^_'
'side_'
'visibility_'
'01_'
'AWS^_'
'since^_'
'range\u^_'
'connect\u^_'
'inspect_'
'cwd_'
'black^_'
'Reader_'
'ring^_'
'members_'
'disabled^_'
'1'
'API\u^_'
'rev_'
'cloud_'
'pprint_'
'panel_'
'latest^_'
'structure_'
'begin^_'
'Push^_'
'switch^_'
'lon_'
'bb^_'
'router_'
'expression_'
'ver_'
'sec_'
'lookup_'
'Required^_'
'Rate^_'
'play^_'
'abc_'
'Schema_'
'frames_'
'ensure\u^_'
'Enter^_'
'arch_'
''</^_'
'cast_'
'ba^_'
'Header_'
'Video^_'
'pp_'
'sets^_'
'engine^_'
'beta_'
'hidden^_'
'Django^_'
'Op^_'
'Stack^_'
'low_'
'children^_'
'during^_'
'Security^_'
'framework_'
'true_'
'errno_'
'Product^_'
'ext\u^_'
'urlopen_'
'dev\u^_'
'cpu^_'
'Per^_'
'MS'
'ix_'
'pkg\u^_'
'44_'
'Parser^_'
'tb_'
'stack\u^_'
'ot^_'
'edit_'
'side^_'
'fc^_'
'il^_'
'ent_'
'ssh^_'
'ret\u^_'
'Matrix_'
'editor_'
'POINTER_'
'globals_'
'Operation^_'
'Tuple_'
'Vector_'
'Non^_'
'after_'
'Method_'
'box\u^_'
'grad_'
'put\u^_'
'hashlib_'
'ile_'
'Generate^_'
'positions_'
'steps^_'
'ec_'
'fill\u^_'
'cc_'
'typing_'
'take^_'
'high^_'
'ian^_'
'VM^_'
'mkdir_'
'definition^_'
'Position^_'
'x0_'
'Remote^_'
'5'
'TABLE^_'
'algorithm^_'
'Document_'
'enable\u^_'
'Permission^_'
'route^_'
'failure^_'
'Login^_'
'calc\u^_'
'diff\u^_'
'family^_'
'Topic^_'
'\\.^_'
'direction^_'
'useful^_'
'Bytes^_'
'reference_'
'drop\u^_'
'requires^_'
'warning^_'
'sig_'
'"\u"_'
'Convert^_'
'38_'
'rel^_'
'Str^_'
'DIR^_'
'pandas_'
'existing\u^_'
'fixed^_'
'append\u^_'
'echo^_'
'INFO^_'
'Has^_'
'try\u^_'
'pl_'
'worker_'
'identity_'
'Files^_'
'address\u^_'
'$'
'\u\u\uCARET\u\u\u'
'Single^_'
'Match^_'
'Datum_'
'sigma_'
'feed^_'
'detail_'
'Enable^_'
'needed^_'
'off_'
'entities_'
'CD'
'month^_'
'partial_'
'.5_'
'clean^_'
'xs_'
'long_'
'Generic^_'
'reg\u^_'
'Json^_'
'FILE^_'
'AC^_'
'serializer_'
'Style_'
'keras_'
'ios^_'
'epoch_'
'metric^_'
'ping^_'
'feed\u^_'
'Entity^_'
'fe^_'
'were^_'
'defaults^_'
'Dir^_'
'59_'
'1000^_'
'((^_'
'media\u^_'
'Core^_'
'representation^_'
'serializers_'
'Domain^_'
'Google^_'
'credentials^_'
'patch\u^_'
'O\u^_'
'ul^_'
'validator_'
'light^_'
'permissions_'
'base64_'
'Sequence_'
'priority_'
'created\u^_'
'*=_'
'functools_'
'minimum^_'
'clicked_'
'Creates^_'
'destination_'
'sim_'
'weights^_'
'Args_'
'too^_'
'Common^_'
'representing^_'
'channels^_'
'implementation^_'
'ER^_'
'shift_'
'ty_'
'c1_'
'byte^_'
'delta^_'
'locale_'
'ftype_'
'keep^_'
'THE^_'
'schema\u^_'
'org_'
'book^_'
''%(^_'
''+'_'
'struct^_'
'factor^_'
'ev_'
'ted^_'
'up\u^_'
'ize^_'
'10000_'
'DELETE^_'
'43_'
'numbers_'
'proxy\u^_'
'Rule_'
'FOR^_'
'execution^_'
'mem_'
'required\u^_'
'}{^_'
'complex^_'
'Arguments^_'
'dbinstance_'
'align^_'
'question^_'
'int32_'
'56_'
'ue^_'
'socket^_'
'published^_'
'home_'
'pid^_'
'collection\u^_'
'previous\u^_'
'hidden\u^_'
'memory_'
'processing^_'
'exp^_'
'ST^_'
'quote_'
'operations^_'
'digits_'
'comments^_'
'signature^_'
'∅∅'
'prepare\u^_'
'dim^_'
'font\u^_'
'above^_'
'SET^_'
'9'
'linux^_'
'Ref_'
'TO^_'
'registered^_'
'jobs^_'
'selection^_'
'every^_'
'dest^_'
'kind^_'
'111111111111111^_'
'async\u^_'
'apply_'
'comp_'
'Link_'
'51_'
'sync\u^_'
'{{^_'
'keep\u^_'
'CONFIG_'
'pages^_'
'dump\u^_'
'verify_'
'INSERT^_'
'delta\u^_'
'char\u^_'
'comments_'
'168^_'
']{^_'
'ascii^_'
'linear^_'
'baz^_'
'Thread^_'
'sum\u^_'
'exceptions^_'
'starting^_'
'tenant\u^_'
'ata_'
'dist^_'
'nums_'
'validators_'
'Url^_'
'ut^_'
'validate^_'
'ea^_'
'vs_'
'dt^_'
'dom_'
'tenant^_'
'Batch^_'
'program_'
'least^_'
'codes_'
'archive^_'
'multi^_'
'53_'
'mask\u^_'
'speed^_'
'indices^_'
'logs^_'
'formatter_'
'clean_'
'only\u^_'
'Package^_'
'CC^_'
'convert_'
'{'^_'
'plain^_'
'..._'
',%^_'
'Linux^_'
'cb'
'atom_'
'tool_'
'net'
'results\u^_'
'HTTP\u^_'
'roles_'
'cv_'
'>,^_'
'les^_'
'opt\u^_'
'ap_'
'Cache_'
'Option_'
'reason^_'
'packet^_'
'sel_'
'sorted\u^_'
'Media^_'
'compute_'
'changes_'
'scripts^_'
'raise\u^_'
'exclude_'
'				^_'
'COLOR^_'
'hour_'
'CREATE^_'
'ans_'
'frequency^_'
'180_'
'sign_'
'angle^_'
'Loader_'
'idx^_'
'normal_'
'provide^_'
'UTF^_'
'cpu\u^_'
'legend_'
'days^_'
'atoms_'
'rest_'
'Start_'
'cl_'
'torch_'
'bc^_'
'39_'
'ze^_'
'ES^_'
'documentation^_'
'Generator_'
'0.3_'
'ur_'
'ED\u^_'
'requested^_'
'Out_'
'STATE\u^_'
'Items_'
'sp^_'
'thread\u^_'
'"\\\\^_'
'private\u^_'
'subplot_'
''\\\\^_'
'1.5_'
'proto^_'
'Interface_'
'extract^_'
'btn^_'
'Row^_'
'Pool^_'
'pair^_'
'Environment^_'
'alias^_'
'.\u\u^_'
'Full^_'
''>^_'
'Store^_'
'an_'
'dot\u^_'
'core\u^_'
'PORT_'
'xt_'
'AL^_'
'Port_'
'three^_'
'parameter\u^_'
'multi\u^_'
'responses_'
'line'
'Stream_'
'Ip^_'
'needs^_'
'gene^_'
'nargs_'
'pyxb_'
'ys_'
'ING^_'
'cal^_'
'Sim^_'
'actual^_'
'Record_'
'tile_'
'after\u^_'
'Builder_'
'let^_'
'ap^_'
';'
'wrong^_'
'3.0_'
'sequence\u^_'
'512_'
'Decimal_'
'problem^_'
'initial_'
'verify^_'
'library_'
'initializer_'
'loaded^_'
'vol_'
'46_'
'47_'
'chdir_'
'translation_'
'"""\\^_'
'ae'
']\\^_'
'dump^_'
'bucket\u^_'
'asarray_'
'ING\u^_'
'Component^_'
'node'
'call\u\u_'
'internal\u^_'
'Nt^_'
'fontsize_'
'statement_'
'Profile_'
'getcwd_'
'decode\u^_'
'Player^_'
'Left^_'
'seek_'
'energy^_'
'categories_'
'52_'
'origin^_'
'components^_'
'Matrix^_'
'selector_'
'cells_'
'lib\u^_'
'parsed_'
'tf\u^_'
'mac^_'
'creation^_'
'Users^_'
'XML_'
'Any_'
':`~^_'
'stdout^_'
'worker^_'
'dat^_'
'fn^_'
'B\u^_'
'fetch^_'
'"∅∅∅∅"_'
'LOG\u^_'
'cpu_'
'prop\u^_'
'scheme_'
'support_'
'card^_'
'list'
'63_'
'scan^_'
'\u'
'priority^_'
'question_'
'parametrize_'
'ate^_'
'sid_'
'nan_'
'license^_'
'DEFAULT^_'
'Root^_'
'upper^_'
'({^_'
'feed_'
'ment_'
'location\u^_'
'div_'
'bs_'
'board^_'
'Named^_'
'visible_'
'ssh\u^_'
'fd^_'
'examples^_'
'hosts^_'
'infile_'
'ver^_'
'expect\u^_'
'prev_'
'le\u^_'
'END^_'
'gs^_'
'second_'
'started^_'
'49_'
'pipeline_'
'Helper_'
'average^_'
'ln_'
'chunk\u^_'
'remote_'
'controller^_'
'exec\u^_'
'special^_'
'city^_'
'ons^_'
'escape_'
'r1_'
'read'
'our^_'
'Directory_'
'Items^_'
'0'
'values\u^_'
'Plot^_'
'&'
'Provider_'
'matches^_'
'found\u^_'
'Tab^_'
'UI^_'
'I\u^_'
'ze_'
'Driver^_'
'TEST^_'
'501^_'
'Section^_'
'req^_'
'inp_'
'rd^_'
'6'
'ef^_'
'sizes_'
'Maximum^_'
'level\u^_'
'calls^_'
'part\u^_'
'activity^_'
'0x3'
'before_'
'ml^_'
'fid_'
'fail\u^_'
'radius^_'
'\\-^_'
'alt^_'
'7'
'Ds^_'
'section\u^_'
'doc\u\u_'
'Identifier_'
'obs_'
'Role^_'
'tcp^_'
'0x5'
'r2_'
'Chosen^_'
'mgr_'
'external\u^_'
'ions^_'
'Role_'
'serial_'
'Memory^_'
'region\u^_'
'lt^_'
'Y'
'Msg^_'
'@'
'working^_'
'abstractmethod_'
'Order_'
'='
'phase^_'
'means^_'
'  _'
'500^_'
'ne_'
'revision^_'
'reference\u^_'
'logs_'
'ret^_'
'allowed\u^_'
'nested\u^_'
'training\u^_'
'rel\u^_'
'cp_'
'EC'
'folder\u^_'
'bf'
'Trace^_'
'Panel_'
'Compute^_'
'weight\u^_'
'J'
'memory\u^_'
'dimension^_'
'TO\u^_'
'tor^_'
'Examples^_'
'override^_'
'listener_'
'"/>^_'
'LIST_'
'versions_'
'${^_'
'Device_'
'well^_'
'time'
'pop^_'
'position\u^_'
'team_'
'creating^_'
'settings\u^_'
'impl_'
'0.05_'
'Geometry_'
'lookup\u^_'
'Prefix^_'
'cisco^_'
'67_'
'hi^_'
'Process_'
'dtype^_'
'fp'
'Area^_'
'setuptools_'
'img'
'ws'
'Dummy^_'
'replace\u^_'
'est_'
''@^_'
'Close^_'
'cached\u^_'
'member\u^_'
'Assertion^_'
'typ_'
'ath_'
'disk_'
'start'
've_'
'top'
'ly_'
'dn_'
'tensor\u^_'
'sklearn_'
'something^_'
'successfully^_'
'Argument_'
'$"_'
'until^_'
'wrap_'
'property\u^_'
'render^_'
'Begin_'
'ness^_'
'key'
'Step^_'
'="%^_'
'md5_'
'configure_'
'red_'
'except^_'
'raises^_'
'Opt_'
'retry_'
'geometry_'
'indexes_'
'54_'
'servers_'
'di^_'
'Site^_'
'tab\u^_'
'large^_'
'dst^_'
'Signal_'
'cm^_'
'ci^_'
'Internal^_'
'MP^_'
'hours_'
'Parameters_'
'trace^_'
'track\u^_'
'df'
'INTO^_'
'Counter_'
'definition_'
'sha^_'
'pc_'
'c2_'
'members^_'
'transaction^_'
'ge_'
'ranges_'
'Content_'
'destroy_'
'parser\u^_'
'ing'
'Factory^_'
'git\u^_'
'MD^_'
'Param_'
'delimiter_'
'shared\u^_'
'||^_'
'Offset^_'
'Dataset^_'
'encode\u^_'
'condition^_'
'able\u^_'
'back_'
'constraints_'
'Helper^_'
'ratio^_'
'2d_'
'f1_'
'Foo^_'
'Other^_'
'Container_'
'120_'
'prop^_'
'like_'
'score\u^_'
'150_'
'atom^_'
'tv^_'
'snapshot\u^_'
'calculate\u^_'
'cost^_'
'sources^_'
'()'_'
'provider\u^_'
'notes_'
'tf'
'seed^_'
'full_'
'players_'
'notification^_'
'payload^_'
'UT^_'
'lineno_'
'qt'
'Results^_'
'nick_'
'Height_'
'iso^_'
'database\u^_'
'72_'
'linspace_'
'lambda^_'
'conn\u^_'
'scan\u^_'
'Wifi^_'
'cert_'
'issue^_'
'Gecko^_'
'61_'
'()"_'
'notes^_'
'Given^_'
'power_'
'68_'
'high_'
'Project_'
'xbmc_'
'stats\u^_'
'Setting^_'
'Pv^_'
'route\u^_'
'devices^_'
'works^_'
'room^_'
'CONFIG\u^_'
'negative^_'
'metric\u^_'
'Keys_'
'dist\u^_'
'cn^_'
'ad_'
'NOT\u^_'
'general^_'
'merge_'
'map'
'allclose_'
'dot^_'
'DATA^_'
'layers^_'
'case\u^_'
'params\u^_'
'sa^_'
'Valid^_'
'96_'
'MIT^_'
'Keyboard^_'
'icon\u^_'
'bar'
'Positive^_'
'fac_'
'rank^_'
'58_'
'configs_'
'complete_'
''|'^_'
'phase_'
'ons_'
'yet^_'
'backup\u^_'
'connected^_'
'2011^_'
'('
'vim^_'
'par_'
'Store_'
'again^_'
'Person^_'
'raised^_'
'Sizer_'
'BY^_'
'vertices_'
'terms_'
'ive^_'
'cert\u^_'
'88_'
'000000^_'
'linalg_'
'USER^_'
'url'
'sets_'
'category\u^_'
'updated\u^_'
'tr'
'Handle^_'
'binding_'
'∅∅∅∅∅∅∅∅∅∅∅^_'
'ya'
'95_'
'dt'
'Route^_'
'gt^_'
'loss\u^_'
'NO\u^_'
'Warning_'
'57_'
'shell^_'
'Timeout^_'
'sync_'
'Series_'
'acc_'
'java^_'
'iterator_'
'gamma_'
'd1_'
'URI^_'
'positive^_'
'>%^_'
'splitext_'
'known^_'
'Defaults^_'
'Struct^_'
'Component_'
'Folder_'
'team\u^_'
'already\u^_'
'room_'
'cond_'
'<=^_'
'push_'
'predict_'
'mark^_'
'ER\u^_'
'states^_'
'da_'
'Types^_'
'spec\u^_'
'Right^_'
'partition_'
'article^_'
'xy_'
'stat^_'
'`'
'Param^_'
'interface\u^_'
'VALUES^_'
'evaluate_'
'!=^_'
'66_'
'-'
'processed_'
'dp_'
'hex^_'
'"'"_'
'theme_'
'vs^_'
'bottom_'
'Na^_'
'constant^_'
'tic^_'
'document\u^_'
'authentication^_'
'rpc_'
'Nodes_'
'USE\u^_'
'Step_'
'DE^_'
'act_'
'patch^_'
'America^_'
'mac_'
'transform^_'
'trigger^_'
'Export^_'
'Ne'
'video_'
'below^_'
'PREFIX_'
'license_'
'dates_'
'ref'
'iface_'
'Operator_'
's3_'
'"""'
'Exist_'
'chain^_'
'Down^_'
'Protocol_'
'exclude\u^_'
'Check_'
'ta_'
'lib'
'go_'
'Documentation^_'
'def\u^_'
'SSL^_'
'segment_'
'Stats^_'
'62_'
'available\u^_'
'im^_'
'0.25_'
'padding^_'
'type\u_'
'cli\u^_'
'interfaces_'
'buffer\u^_'
'Move^_'
'Properties^_'
'catalog^_'
'geometry^_'
'written^_'
'sqlite^_'
'transpose_'
'pin_'
'ng'
'delay^_'
'stmt_'
'ers_'
'span_'
'slot_'
'user'
'rmtree_'
'pys'
'those^_'
'CD^_'
'walk_'
'temp'
'answer^_'
'DA'
'cookie_'
'temperature^_'
'keyword_'
'nd'
'statement^_'
'``,^_'
'reg^_'
'serial^_'
'codecs_'
'length\u^_'
'pt'
'sb'
'ordering^_'
'docker^_'
'second\u^_'
'Foundation^_'
'pts_'
'tx^_'
'ine^_'
'surface_'
'FA'
'extract_'
'00000000^_'
'zip\u^_'
'good^_'
'dc_'
'der^_'
'def'
'Wrapper_'
'safe_'
'machine_'
'avg\u^_'
'Collection_'
'ation_'
'ic_'
'dde^_'
'Var^_'
'nb^_'
'recv_'
'[@^_'
'driver\u^_'
'Dataset_'
'Warning^_'
'matrix\u^_'
'Authentication^_'
'metrics^_'
'Writer_'
'ua^_'
'processors^_'
'lookup^_'
'levels_'
'do_'
'task'
'mail_'
'a1_'
'tables^_'
'fc'
'fb^_'
'book_'
'conv^_'
'bus_'
'Selection_'
'mx_'
'fetch_'
'noqa^_'
'bt'
'pl^_'
'model'
'app'
'lazy_'
'hist_'
'continue^_'
'symbols_'
'1234^_'
'|\\^_'
'avg^_'
'native\u^_'
'example\u^_'
'000_'
'flatten_'
'2010^_'
'comment\u^_'
'Some^_'
'Top^_'
'objs_'
'sec^_'
'CF^_'
'pipeline^_'
'ssl\u^_'
'cleanup_'
'segment^_'
'600_'
'ft^_'
'sig'
'exec^_'
'Running^_'
'85_'
'savefig_'
'ur^_'
'ALL_'
'Accept^_'
'MD'
'automatically^_'
']:^_'
'dir'
'TYPES_'
'le'
'77_'
'SA'
'W\u^_'
'blog^_'
'getvalue_'
'Used^_'
'fixed\u^_'
','
'"&^_'
'ck_'
'hash'
'Called^_'
'Values^_'
'{}'
'Db^_'
'IF^_'
'}}^_'
'tc'
'za'
'ERROR\u^_'
'LOGGER_'
'{'
'work\u^_'
'specs_'
'ax'
'EVT\u^_'
'dlg_'
'export_'
'accounts^_'
'cmd'
'phone^_'
'###############^_'
'var'
'refs_'
'Any^_'
'jsonify_'
'fetchall_'
'clock_'
'Git^_'
'mu^_'
'basic\u^_'
'84_'
'MIB^_'
'Float_'
'Syntax^_'
'ts\u^_'
'sensor^_'
'DD'
'retry^_'
'release\u^_'
'quit_'
'phi_'
'family_'
'998'
'cpp^_'
'Proxy_'
'path'
'Multiple^_'
'rg'
'af'
'due^_'
'bias_'
'servers^_'
'Collection^_'
'real_'
'submit^_'
'failed_'
'WITHOUT^_'
'prompt_'
'78_'
'windows^_'
'optimizer_'
'arch^_'
'download_'
'Whether^_'
'byte_'
'router^_'
'derefcnt_'
'Help^_'
'DC'
'Each^_'
'mode\u^_'
'pairs^_'
'updates_'
'ct^_'
'71_'
'ity_'
'xsd^_'
'Font^_'
'af^_'
'si^_'
'calling^_'
'represents^_'
'pkt_'
'nce^_'
'parsed^_'
'permission_'
'mock^_'
'example_'
'ja^_'
'uuid4_'
'contact_'
'Async^_'
'().^_'
'included^_'
'notify_'
'(?^_'
'mouse^_'
''#'_'
'ep_'
'ts'
'ol^_'
'lo^_'
'Setting_'
'gene\u^_'
'assert\u_'
'ES_'
'install_'
'rst^_'
'docs_'
'lists_'
'Tra'
'IP_'
'out'
'ISO^_'
'79_'
'pin'
'Download^_'
'WSGI^_'
'finished^_'
'Seq^_'
'ml_'
'once^_'
'ydk^_'
'2000^_'
'ret'
'Attributes_'
'sim\u^_'
'certificate^_'
'ame^_'
'he^_'
'including^_'
'loc^_'
'Checked_'
'use_'
'uniform_'
'Mask^_'
'll'
'missing_'
'type'
'Attr_'
'forward^_'
'ssl^_'
'sorted^_'
'Results_'
'sheet_'
'forward_'
'renderer_'
'd2_'
'retrieve^_'
'wx^_'
'{:^_'
'date'
'PS'
'lon^_'
'refresh_'
'tt^_'
'deps_'
'bg_'
'connections_'
'nova^_'
'Development^_'
'Height^_'
'add'
'iter'
'sentence_'
'refresh\u^_'
'0.8_'
'inv_'
'ax^_'
'Pool_'
'activation_'
'tile\u^_'
'81_'
'.*^_'
'text'
'Flags_'
'ha^_'
'TEXT^_'
'Configuration_'
'fb'
'norm^_'
'Controller^_'
'own^_'
'generic^_'
'ja'
'Validator_'
'ignored^_'
'Selection^_'
'tail_'
'relative\u^_'
'versions^_'
'ws^_'
'Parent^_'
'callable^_'
'center\u^_'
'V\u^_'
'Beautiful^_'
'syntax^_'
'ode_'
'Engine^_'
'exe^_'
'identity^_'
'nc^_'
'','^_'
'available_'
'pg'
'splitlines_'
'mc_'
'sym_'
'compare\u^_'
'76_'
'ary^_'
''?'_'
'Debug^_'
'Cmd_'
'Null^_'
'chunks_'
'namespaces_'
'Setup^_'
'tp_'
'DEBUG^_'
'['
'mf'
'schedule_'
'wo'
'stage_'
'es'
'wc\u^_'
'Library^_'
'wrapper^_'
'commit\u^_'
'"∅∅∅"_'
'pass\u^_'
'chosen^_'
'Offset_'
'043^_'
'validation\u^_'
'Ni'
'ber'
'align_'
'Soup_'
'subnet_'
'ndim_'
'WARNING^_'
'AP^_'
'accept^_'
'subnet^_'
'mesh^_'
'apps^_'
'Your^_'
'DB'
'Release^_'
'provides^_'
'cursor^_'
'licenses^_'
'sl'
'outputs^_'
'ob_'
'To_'
'browser^_'
'92_'
'organization^_'
'Control_'
'])'
'absolute^_'
'my_'
'MT^_'
'updated_'
'ht'
'io\u^_'
'Cursor_'
'allows^_'
'eval^_'
'bound_'
'Program^_'
'axis\u^_'
'xmlns^_'
'closed^_'
'bib'
'ANY_'
'---^_'
'Job_'
'normalize\u^_'
'len\u^_'
'signal\u^_'
'norm\u^_'
'Initialize^_'
'country_'
'97_'
'pd'
'meth^_'
'documents_'
'sections_'
'refresh^_'
'--------^_'
'Player_'
'Alter^_'
'Init^_'
'tx\u^_'
'host'
'did^_'
'Space^_'
'background_'
'basestring_'
'inline^_'
'AUTH\u^_'
'ot_'
'Combo^_'
'cmap_'
'Contact^_'
'fs'
'writing^_'
'latitude^_'
'takes^_'
'&&^_'
'doc'
'accept_'
'+'
'reading^_'
'HOST_'
'summary\u^_'
'Deleter^_'
'69_'
'group'
'73_'
'98_'
'pm_'
'ant^_'
'Limit^_'
''['
'2'
''|'_'
'NONE_'
'async^_'
'conv\u^_'
'Part^_'
'energy_'
'ict_'
'cc\u^_'
'cy^_'
'resize_'
'inner\u^_'
'Minimum^_'
'ype^_'
'types\u^_'
'training_'
'inf_'
'Must^_'
'checks^_'
'ra_'
'abort_'
'Da'
'Home^_'
''..'_'
'%'
'idx\u^_'
'Series^_'
'visible^_'
'moves_'
'code'
'compat_'
'Runner_'
'PC^_'
'utcnow_'
'System_'
'Flag_'
'5\u^_'
'Word^_'
'para^_'
'click^_'
'reads^_'
'num'
'parents_'
'me'
'ext'
'hide_'
'';'_'
'Description_'
'UR^_'
'dialog^_'
'exception\u^_'
'403_'
'rate\u^_'
'require\u^_'
'*"_'
'Redirect_'
'cf_'
'locations_'
'sw^_'
'iter^_'
'xx^_'
'Double^_'
'ma_'
'completed^_'
'"</^_'
'nova_'
'bytes\u^_'
'minutes_'
'clusters_'
'ub^_'
'regex^_'
'people^_'
'offset\u^_'
'nodes\u^_'
'rep_'
'250_'
'password\u^_'
'rospy_'
'Category_'
'svg^_'
'monitor_'
'ctxt_'
'}:^_'
'AR^_'
'generate_'
'mid'
'pipe_'
'mu'
'co_'
'eps_'
'mapper_'
'management_'
'name'
'ini^_'
'strptime_'
'longitude^_'
'"]'
'blob^_'
'xr^_'
'UUID^_'
'SR'
'mm_'
'ndarray_'
'updates^_'
'SS^_'
'Temp^_'
'Max_'
'NN^_'
'MS^_'
'Linear^_'
'02_'
'reduce\u^_'
'before\u^_'
')"""_'
'PC'
'counter^_'
'Big^_'
'buttons_'
'Py'
'scheduler_'
'port'
'Match_'
'Timer_'
'86_'
'bb'
'Scale^_'
'AT^_'
'prop'
'secret\u^_'
'assigned^_'
'mr'
'am'
'analysis_'
'Target_'
'Upload^_'
'made^_'
'href_'
'exec_'
'getenv_'
'DB\u^_'
'n1_'
'learning\u^_'
'proc^_'
'Transport_'
'one'
'ions_'
'drop^_'
'name\u_'
'tm_'
'')'_'
'bf^_'
'\u\u'
'#'
'+)'
'manage^_'
'direct^_'
'Spec^_'
'74_'
'87_'
'post'
'reg'
'td_'
'eb'
'91_'
'Lock_'
'Geo^_'
'89_'
'latest\u^_'
'namedtuple_'
'sign^_'
'without\u^_'
'pdf_'
'directly^_'
'now\u^_'
'place_'
'vm'
'eq\u\u_'
'ist^_'
'ser_'
'shift^_'
'Impl^_'
'strategy_'
'normalize_'
'urlpatterns_'
'min'
'ylim_'
'Fixed^_'
'EC^_'
'**\\:^_'
'validation_'
'CFG\u^_'
'Comment_'
'expand_'
'mid_'
'2000_'
'Using^_'
'ns\u^_'
'predictions_'
'show'
'mod'
'fix^_'
'templates_'
'0x9'
'fe'
'console_'
'redirect^_'
'hd'
'NS_'
'dummy\u^_'
'83_'
'face^_'
'org\u^_'
'city_'
'(-^_'
'bl\u^_'
'Lo'
'plot'
'iterator^_'
'limits_'
'Should^_'
'Insert^_'
'ke'
'dat_'
'tornado_'
'INTEGER^_'
'ud'
'dtypes_'
'filename\u^_'
'OT'
'sg'
'NAME\u^_'
'double_'
'Machine^_'
'expand\u^_'
'*.^_'
'true\u^_'
'():^_'
'gb'
'ae^_'
'MAP_'
'notify^_'
'pad\u^_'
'abs\u^_'
'inside^_'
'resolution_'
'head\u^_'
'boot^_'
'segments_'
'evt_'
'0.9_'
'decorators_'
'implied^_'
'reply\u^_'
'sta'
'xml'
'aws^_'
'stage^_'
'ln'
'bd^_'
'compare^_'
'vol\u^_'
'ports^_'
'dec_'
'ay^_'
'CSV^_'
'android^_'
'SD'
'card\u^_'
'precision_'
'bin'
'?\\^_'
'enum^_'
'ptr^_'
'switch\u^_'
'ns'
'rel_'
'rpc\u^_'
'Pattern_'
'apache^_'
'against^_'
'tokens^_'
'problem_'
'Extension_'
'By_'
'pb'
'aliases_'
'cli^_'
'ko'
'ud^_'
'live^_'
'Serialize^_'
'check'
'Update_'
'eb^_'
'0x6'
'cert^_'
'calculate^_'
'AN^_'
'solver_'
'component\u^_'
'pe^_'
'Verify^_'
'push\u^_'
'test'
'err'
'/'
'rand_'
'threads^_'
'Points_'
'nfo_'
'del\u^_'
'10.0_'
'shape\u^_'
'tmp'
'meta'
'actor_'
'server'
'sr'
'frequency_'
'color'
'solution_'
'sigma^_'
'>'
'clone_'
'issue_'
'tz_'
'Tx^_'
'Member^_'
'sim^_'
'82_'
'day\u^_'
'123_'
'percent_'
'reply^_'
'chat^_'
'monitor^_'
'asset^_'
'freq^_'
'Wrapper^_'
'ident_'
'AA'
'processor_'
'Zero^_'
'pretty\u^_'
'0x00'
'course^_'
'info'
'EE'
'checker_'
'float\u^_'
'Inc^_'
'DR'
'ors^_'
''../^_'
'INT^_'
'coordinates_'
'distribution_'
'integer_'
'pylab_'
'Testing^_'
'Filename_'
'Exit_'
'hass_'
'Ma'
'0.4_'
'93_'
'bus^_'
'bound^_'
'helper^_'
'mm'
','_'
'300^_'
'GO'
'conv_'
'vs'
'obj'
'Storage_'
'ru'
'RE_'
'ode^_'
'Close_'
'pu'
'dd_'
'dp'
'Len_'
'future_'
'bases_'
'misc_'
'schedule^_'
'bbox_'
'alert^_'
'ssl_'
'js_'
'link'
'TS'
'Decimal^_'
'ING_'
'Fields_'
'constraint_'
'addresses_'
'worker\u^_'
'edu^_'
'"''
'xlim_'
'cf'
'Sync^_'
'getitem\u\u_'
'FE'
'article_'
'Normal^_'
'shared_'
'scalar^_'
'old'
'amp^_'
'CH^_'
'failure_'
'configured^_'
'data'
't0_'
'H\u^_'
'Sensor^_'
'ins_'
':'
':``^_'
'NI'
'page'
'prev^_'
'ips_'
'AP'
'Short^_'
'SE^_'
'dot'
''),^_'
'Zone^_'
'Install^_'
'con^_'
'conditions_'
'clients_'
'mass^_'
'examples_'
'workspace_'
'.3'
'flash_'
'dimensions_'
'sf'
'IF'
'flag\u^_'
'cases^_'
''*.^_'
'Connect^_'
'sg_'
'oid^_'
'}}'
'activity_'
'wd_'
'virtual\u^_'
'bla'
'Buffer_'
'webpage_'
'Reset^_'
'redirect\u^_'
'Util_'
'tile^_'
'outer\u^_'
'DI'
'flat_'
'ga^_'
'asset\u^_'
'applied^_'
'Detail^_'
'slice^_'
'f2_'
'HA'
'"%(^_'
'realpath_'
'pad^_'
'ring_'
'Starting^_'
'nr'
'percent^_'
'manual^_'
'hidden_'
'Namespace_'
'processed^_'
'sent_'
'Provider^_'
'numeric\u^_'
'pv'
'watch^_'
'callback\u^_'
'\\\\'
'ter_'
'im'
'repeat_'
'El'
'Entity_'
'5.0_'
'geom_'
'Comment^_'
'Regex_'
'=>^_'
'partition^_'
'separated^_'
'ure^_'
'parsing^_'
'dynamic^_'
'separator_'
'opt'
'fa'
'coordinate^_'
'logfile_'
'poly'
'!\\^_'
'ENSMUSG^_'
'l2_'
'stride_'
'./^_'
'transport^_'
'Folder^_'
'block'
'modified_'
'lf'
'produces^_'
'?'
'orientation_'
'shuffle_'
'NS'
'placeholder_'
'router\u^_'
'ol_'
'xa'
'Disk^_'
'datasets_'
'=\\^_'
'Notification^_'
'<'
'sessions^_'
'long'
'media_'
'These^_'
'Return_'
'mt'
'lc'
'Expr^_'
'dimensions^_'
'quality^_'
'power\u^_'
'Gi'
'blob_'
'IN\u^_'
'marker^_'
'tx'
'ls'
'PUT^_'
'PD'
'y0_'
'np'
'Backend^_'
'break^_'
'`:^_'
'Processing^_'
'Unless^_'
'conditions^_'
'Ha'
'almost\u^_'
'						_'
'lr_'
'Nodes^_'
'nc_'
'targets^_'
'Interval^_'
'gateway^_'
'fun_'
'World^_'
'ER_'
'deleted_'
'backends^_'
'ax1_'
'mem^_'
'roles^_'
'-"_'
'NA^_'
'mark\u^_'
'Z'
'hp'
'not'
'play_'
'plus_'
'0xf'
'.2'
'transform\u^_'
'Struct_'
'cfg\u^_'
'Sta'
'xt'
'BE^_'
'lm'
'So'
'bg^_'
'Child^_'
'together^_'
'Al'
'94_'
'ui\u^_'
'nr_'
'dispatch_'
'Region^_'
'contact\u^_'
'argument\u^_'
'at'
'protected^_'
'             _'
'ch'
'end'
'Params^_'
'param'
'Enabled^_'
'adding^_'
'PRE'
'DF'
'ds'
'AD^_'
'Draw^_'
'camera_'
'Done^_'
'tb'
'wrap\u^_'
'cc'
'"['
'look^_'
'dep_'
''('
'trigger_'
'signals_'
'perform^_'
'really^_'
'switch_'
'still^_'
'~_'
'backend\u^_'
'fix\u^_'
'Author^_'
'CF'
'm1_'
'sto'
'dns^_'
'.6'
'Re'
'MT'
'pixel^_'
'bits^_'
'screen\u^_'
'web\u^_'
'grad\u^_'
'learning^_'
'js'
'Generated^_'
'Cb^_'
'des^_'
'ck'
'int'
'lower\u^_'
'LT'
'mc^_'
'\^_'
'exclude^_'
'Card^_'
'ka^_'
'ren'
'ctrl_'
'∅n^_'
'104'
'transitions_'
'tc_'
'dependencies^_'
'l1_'
'init'
'BA'
'CT'
'ate_'
'LS'
'share_'
'returncode_'
'ln^_'
'species^_'
'progress\u^_'
'{}\\^_'
'perm_'
'logits_'
'argtypes_'
'Bu'
'editor^_'
'rv^_'
'ial^_'
'AI'
'movie^_'
'RT'
'options\u^_'
'last'
'Kit^_'
'rm_'
'Shape_'
'base'
'tring_'
'High^_'
'box'
'ex'
'101^_'
'.4'
'Flag^_'
'rr_'
'thrift\u^_'
'/=_'
'inner^_'
'cross\u^_'
'msgs_'
'BB'
'thumbnail_'
'mozilla^_'
'gm'
'concatenate_'
'>`^_'
'"./^_'
'source'
'3d_'
'loop\u^_'
'orig_'
'Two^_'
'standard\u^_'
'assign_'
'cms_'
'ser'
'tre'
'big^_'
'floor_'
'decorator_'
'home\u^_'
'restype_'
'rm'
'copyright^_'
'00000^_'
'Pos^_'
'.5'
'expanduser_'
'SQ^_'
'resolve\u^_'
'hours^_'
'Track^_'
'topic\u^_'
'oauth^_'
'reverse^_'
'ION\u^_'
'Bool^_'
'tolist_'
'Elements^_'
'Width^_'
'IS\u^_'
'compare_'
'locations^_'
'Mapping_'
'Ra'
'sys'
'n2_'
'ally^_'
'cancel^_'
'projects_'
'Solution_'
'Api_'
'eta'
'around^_'
'reverse\u^_'
'require^_'
'runs^_'
'over'
'places_'
'clf_'
'et'
'categories^_'
'avg_'
'company^_'
'EA'
'stock^_'
'dl^_'
'pp^_'
'used_'
'Wait^_'
'.1'
'VERSION^_'
'LE^_'
'ME^_'
'son^_'
'visit\u^_'
'series\u^_'
'indent^_'
'mysql^_'
'0000_'
'SA^_'
'Unique^_'
'rotation_'
'surface^_'
'H'
'stat\u^_'
'Ja'
'maps^_'
'LEFT_'
'[-^_'
'two\u^_'
'Summary^_'
'of'
'Network_'
'rng_'
'class'
'CS^_'
'})'
'handler\u^_'
'oid_'
'blocks^_'
'150'
'constraint^_'
'rename_'
'SC'
'zero\u^_'
'LD'
'supports^_'
'lock\u^_'
'Team^_'
'Score^_'
'django\u^_'
'outdir_'
'CC'
'be\u^_'
'ML^_'
'correct\u^_'
'a2_'
'})^_'
'im\u^_'
':**^_'
'120'
'notification_'
'gd'
'operation\u^_'
'109'
'np\u^_'
'deprecated^_'
'coverage^_'
'.8'
'cube_'
'(),^_'
'expr^_'
'db'
'Progress^_'
'''''
'res'
'os'
'catalog_'
'CPU^_'
'ids\u^_'
'100.0_'
'manifest_'
'output'
'archive_'
'scan_'
'config'
'Keyword_'
'statistics^_'
'tp'
'shapes_'
'Groups^_'
'deletion_'
'ly'
'letter_'
'MC'
'compile\u^_'
'3600_'
'btn_'
'.)^_'
'HI'
'4.0_'
'alt_'
'ru^_'
'addresses^_'
'sqlite3_'
'm2_'
'"><^_'
'"*"_'
'Database_'
'station^_'
'mat'
'Temporary^_'
'Union_'
'executable_'
'tor_'
'Properties_'
'∅∅∅∅∅∅∅∅∅∅∅∅^_'
'auth'
'Obj^_'
'GL'
'cloud\u^_'
'sm_'
'MA^_'
'per'
'pdb^_'
'multiple\u^_'
'chat\u^_'
'known\u^_'
'publish^_'
'original_'
'Lu'
'MM^_'
'Feature_'
'cookies_'
'WIDTH_'
'lb'
'episode^_'
'PS^_'
'encoded^_'
'final_'
'Shape^_'
'pc'
'api'
'103'
'Lookup^_'
'workers_'
'Doc^_'
'super'
'ub'
'connector_'
'LO'
'      _'
',"_'
'ds\u^_'
'ms'
'checker^_'
'Long^_'
'External^_'
'ny'
'mol_'
'li_'
'nothing^_'
'cross^_'
'AC'
'pg_'
'td'
'ind^_'
'pg^_'
'disable\u^_'
'ob'
'blit_'
'upload_'
'ka'
'qd'
'pr_'
'rb'
'http'
'gc_'
'src'
'char'
'audio\u^_'
'logger^_'
'ors_'
'quote\u^_'
'artist^_'
'))'
'Flask_'
'from'
'128'
'comparison\u^_'
'framework^_'
'drop_'
'sw'
's3\u^_'
'iterations_'
'Stats_'
'suite^_'
'RD'
'callable_'
'thumbnail^_'
'input'
'Metadata_'
'mass_'
'Authorization^_'
'MC^_'
'DC^_'
'float64_'
'party^_'
'field'
'ti^_'
'twisted_'
'Body^_'
'UPDATE^_'
'lng^_'
'finished_'
'put'
'pyc'
'ry_'
'callbacks_'
'tool\u^_'
'nv'
'RR'
'pos'
'ready^_'
'abs^_'
'bytearray_'
'sv'
'Stack_'
'Radio^_'
'~'
'Ctrl^_'
'sm^_'
'experiment^_'
'za^_'
'redis_'
'Hz^_'
'0x0'
'hs'
'klass_'
'counts^_'
'zero_'
'dep'
'gr_'
'next'
'ATTRIBUTE_'
'GB^_'
'pb^_'
'edges^_'
'IT'
'tt_'
'supplied^_'
'creds_'
'tuples^_'
'square^_'
'Tuple^_'
'plan_'
'digest_'
'ly\u^_'
'cg'
'ue'
'ani'
'state'
'connected_'
'resp\u^_'
'##^_'
'Bind_'
'Extension^_'
'pa_'
'bind^_'
'OP\u^_'
'ek'
'**'
'eq^_'
'ee_'
'annotations_'
'ba'
')*^_'
'Creating^_'
'J_'
'CASCADE_'
'AS'
'sys\u^_'
'LA'
'>/^_'
'comp^_'
'runtime^_'
'hyper'
'slice\u^_'
'playlist^_'
'PI'
'com_'
'poll_'
'ray_'
'hour^_'
'HOST^_'
'fc_'
'face_'
'USE^_'
'ce'
'PR'
'5357^_'
'working\u^_'
'dl'
'DEFINE\u^_'
'communicate_'
'full'
'running\u^_'
'121'
'loading^_'
'multiprocessing_'
'Empty\u^_'
'Activity^_'
'fg_'
'FORMAT_'
'NF'
'In'
'quality_'
'xx_'
'pending^_'
'PROJECT\u^_'
'hexdigest_'
'vt'
'CR'
'ALL^_'
'self\u^_'
'Area_'
'0xa'
'ENERGY^_'
'reactor_'
'DA^_'
'it'
'vf'
'vol^_'
'cancel_'
'workspace^_'
'PY'
'Hi'
'ur'
'\\"'
'util^_'
'view'
'vol'
'built^_'
'theme^_'
'vector\u^_'
'cat'
'1.1'
'fs\u^_'
'third^_'
'building^_'
'str'
'Icon^_'
'ali'
'bold^_'
'choice^_'
'xp'
'Si'
'inf^_'
'round^_'
'join\u^_'
'art_'
'atom\u^_'
'linewidth_'
'MI'
'ep^_'
'compatible^_'
'retry\u^_'
'*\\^_'
'el'
'handlers^_'
'management^_'
'col'
'("_'
'Java^_'
'Multi'
'}/{^_'
'style\u^_'
'tro'
'arrays^_'
'rgb_'
'notify\u^_'
'pb_'
'X'
'water^_'
'Col_'
'workflow^_'
'axes^_'
'write'
'kmi_'
'quote^_'
'et\u^_'
'segment\u^_'
'nested^_'
'prefix\u^_'
'sim'
'slot^_'
'xp_'
'PURPOSE^_'
'mc'
'ju'
'Notes^_'
'up'
'IR'
'rs'
'alt'
'Identifier^_'
'201_'
'review^_'
'Host_'
'dj'
'ip'
'enable_'
'saved\u^_'
'deployment^_'
'candidates_'
'TCP^_'
'README^_'
'uc^_'
'Align^_'
'camera^_'
'Transaction^_'
'03_'
'who^_'
'Over'
'locale^_'
'Private^_'
'UUID_'
'va^_'
'del'
'extensions^_'
'dist'
'History^_'
'string'
'determine^_'
'AL'
'simulation^_'
'arg'
'epsilon_'
'ps'
'|=_'
'big'
'quantity_'
'subnet\u^_'
'override\u^_'
'chunk^_'
'bundle_'
'Grid_'
'gnu^_'
'minutes^_'
'cd_'
'gf'
'configure^_'
'success\u^_'
'CP'
'closed_'
'pycopia_'
'NUM\u^_'
'image'
'106'
'sha'
'plus^_'
'distance\u^_'
'constructor^_'
'artist_'
'``'
'game'
'Sub'
'e1_'
'pkg^_'
'initialize_'
'log'
'++^_'
'compliance^_'
'web'
'play'
'\u\u(^_'
'Symbol_'
'gs'
'iterable_'
'Expression_'
'wt'
'RE^_'
'pred\u^_'
'desired^_'
'service'
'bra'
'Choice^_'
'8859^_'
'getopt_'
'strong^_'
'ND'
'max'
'fits^_'
'initialize\u^_'
'widget\u^_'
'correctly^_'
'ion'
'8'
'xc'
'bind\u^_'
'RPC^_'
'filtered\u^_'
'std\u^_'
'episode_'
'backup_'
'clicked^_'
'sc^_'
'Di'
'km_'
'vc'
'400^_'
'chi'
'successful^_'
'tol_'
'0x8'
'COLOR\u^_'
'figure^_'
'complete\u^_'
'turn^_'
'cont_'
'branch\u^_'
'ta'
'gg'
'cases_'
'free\u^_'
'rhs_'
'currency^_'
'Channel_'
'Ki'
'11.'
'ks^_'
'pre_'
'Available^_'
'UTC^_'
'#'_'
'TIME\u^_'
'NA'
'AAAAAAAAAAAAAAA^_'
'keywords^_'
'retries_'
'[\\^_'
'BC'
'GET\u^_'
'Search_'
'constant\u^_'
'fn'
'byte\u^_'
'zi'
'executed^_'
'sudo^_'
'if'
'ml'
'json'
'utilities_'
'("'
'ready_'
'-----^_'
'MAX^_'
'"@^_'
'TIMEOUT_'
'receive^_'
'DO'
'il'
'encoder_'
'Small^_'
'0xe'
'decimal^_'
'FITNESS^_'
'gid_'
'pull^_'
'cn'
'necessary^_'
'URI_'
'distutils_'
'Master^_'
'Driver_'
'history\u^_'
'fetchone_'
'verbosity_'
'font'
'Spin^_'
'0.02'
'Console^_'
'PARTICULAR^_'
'frame'
'REQUEST_'
'ft_'
'annotation^_'
'act^_'
'LICENSE^_'
'cal'
'DT'
'MERCHANTABILITY^_'
'lengths_'
'firefox^_'
'{%^_'
'timeout\u^_'
'hide^_'
'Day^_'
'ki^_'
'additional\u^_'
'Cell_'
'light'
'names\u^_'
'Ap'
'fn\u^_'
'Also^_'
'After^_'
'Bar'
'Credentials_'
'dev'
'reduce_'
'Events^_'
'tv'
'Ctrl_'
'Attr^_'
'ix'
'nb'
'translate^_'
'Idx_'
'very^_'
'future^_'
'Audio^_'
'documents^_'
'lp'
'gt'
'aa'
'Transform_'
'ABC^_'
'tag'
'Operation_'
'generic_'
'Unit_'
'END_'
'rating^_'
'cmp_'
'pin^_'
'NE'
'SSH^_'
'ao^_'
'ib_'
'TODO^_'
'nl^_'
'DNS^_'
'checked^_'
'ling^_'
'3._'
'limit\u^_'
'zone\u^_'
'demo^_'
'restart^_'
'exp'
'EF'
'individual^_'
'unlink_'
'call'
'Constant_'
':.^_'
'oni'
'ld'
'chan_'
'pa^_'
'split'
'nt'
'So^_'
'ime_'
'band^_'
'subs_'
'ger^_'
'WARRANTY^_'
'person\u^_'
'algorithm_'
'bs^_'
'LL'
'regions_'
'utc_'
'ignore_'
'Pi'
'PORT^_'
'ments^_'
'native^_'
'infos_'
'gamma^_'
'-->^_'
'432'
'SERVER^_'
'sleep^_'
'Op_'
'cv^_'
'classifiers_'
'comp\u^_'
'Func_'
'vlan^_'
'Unexpected^_'
'che'
'AB^_'
'ON\u^_'
'ee'
'rel'
'Priority^_'
'cs'
'ez'
'suffix^_'
'ys^_'
'Pre^_'
'KI'
'decimal_'
'mol'
'Call_'
'')'
''//^_'
'Collision^_'
'salt^_'
'mi^_'
'sed^_'
'job'
'em_'
'tex^_'
'tick_'
'equals_'
'curve_'
'Bus^_'
'interfaces^_'
'resolution^_'
'"{}^_'
'stderr^_'
'Clear^_'
'wsgi\u^_'
'Gen^_'
'appropriate^_'
'abstract^_'
'rho_'
'DEFAULT_'
'daemon_'
'Exit^_'
'file'
'might^_'
'Reference_'
'strip\u^_'
'Bo'
'iso'
'html'
'unicode\u\u_'
'sticky_'
'vertex^_'
'DS^_'
'lg'
'gt_'
'Vo'
'MM'
'Default_'
'DS'
'Box\u^_'
'checks_'
'Lines_'
'VI'
'SITE\u^_'
'{},^_'
'set'
'Ex^_'
'cards_'
'130'
'Slot_'
'bit'
'shutdown_'
'326'
'TI'
'SIG'
'>"""_'
'ten'
'127'
'minute_'
'ct'
'b1_'
'override_'
'result'
'ous^_'
'SMI_'
'IP'
'}\u^_'
'Low^_'
'bc'
'variant_'
'Ro'
'regular^_'
'ix^_'
'panel^_'
'volumes_'
'0x4'
'eu'
'nn^_'
'2008^_'
'greater^_'
'lo_'
'deb'
'space\u^_'
'se'
'Root_'
'300'
'SUB'
'OP^_'
'sh'
'']'
'tt'
'pretty^_'
'bu'
'Tab_'
'gi'
'short'
'eli'
'transfer^_'
'rd_'
'IG'
'Post_'
'relationship_'
'anchor_'
'')"_'
'UD'
'ca_'
'alignment_'
'CE^_'
'dim\u^_'
'major^_'
'effect^_'
'Ids_'
'LIST^_'
'Children_'
'SV'
'connections^_'
'lat'
'ness_'
']+)'
'.*'
'pe'
'PM'
'cloud'
''\u\u\uCARET\u\u\u('
'scripts_'
'br'
'sec'
'CS'
'hdr_'
'hand^_'
'Is_'
'numeric^_'
'character_'
'('_'
'CONF\u^_'
'per_'
'Re^_'
'mem\u^_'
'du^_'
'AV'
'uk^_'
'Checks^_'
'ft'
'vo'
'ey^_'
'x1'
'play\u^_'
'queries_'
'dx'
'Body_'
'gen'
'ex\u^_'
'mn'
'addr\u^_'
'recent^_'
'Distance^_'
'Boolean_'
'="'
'pow_'
'nt\u^_'
'temperature_'
'prog_'
''∅∅∅∅∅∅∅∅∅∅∅∅∅∅^_'
'tab'
'site'
'eo'
'897^_'
'trans^_'
'0xb'
'term\u^_'
'808'
'azure^_'
'sequences^_'
'ys'
'iterable^_'
'|'_'
'OUT^_'
'fake_'
'BS'
'nta'
'according^_'
'")"_'
'rule'
'youtube^_'
'STRING^_'
'Labels_'
'scenario_'
'Run_'
'04_'
'customer^_'
'+"_'
'101_'
'inner_'
'generic\u^_'
'jo'
'arr'
'Char_'
'Cmd^_'
'EP'
'rf'
'main'
'Handle_'
'mox_'
'Calculate^_'
'boxes_'
'routes_'
'urlencode_'
'Qt4_'
'0.6_'
'Apache^_'
'">'
'ALL\u^_'
'Interval_'
'ndb_'
'alpha\u^_'
'same\u^_'
'modes_'
'sig^_'
'om'
'Xml^_'
'defer_'
'vb'
'FS^_'
'bb_'
'dec^_'
'ACT'
'id\u_'
'isi'
'Transform^_'
'msg'
'Lib_'
'concat_'
'chr^_'
'1.0'
'JOIN^_'
'Names^_'
'by'
'Edge^_'
'trace\u^_'
'curr^_'
'EV'
'002^_'
'low\u^_'
'logical\u^_'
'dr'
'checksum_'
'Apple^_'
'rd'
'math'
'Fa^_'
'8\u^_'
'SN'
'finish_'
'∅'_'
'be_'
'build'
'utility_'
'WITH^_'
'icon'
'bot\u^_'
'scheme^_'
'trans\u^_'
'lhcb^_'
'p0_'
'tin'
'manifest^_'
'U'
'LC'
'ag_'
'struct\u^_'
'calc^_'
'ff'
'ION^_'
'archive\u^_'
'006'
'IM'
'HE'
'frames^_'
'SH^_'
'xy'
'bo'
'root'
'filter'
'MODE\u^_'
'an'
'Go^_'
'pipe^_'
'LH^_'
'compile^_'
'pm'
'Changed^_'
'0.001_'
'OP'
'mocked\u^_'
'LFN^_'
'ST'
'medium^_'
'FI'
'AD'
'ef'
'05_'
'din'
'converter_'
'Render^_'
'pyqt^_'
'vbox_'
'reversed_'
'send'
'Execution^_'
'tra'
'latitude_'
'fo^_'
'Fe'
'0.7_'
'der'
''{}^_'
'TIME_'
'CE'
'CODE_'
'NM'
'Expression^_'
'hit_'
'Switch^_'
'od'
'pf'
'AF\u^_'
'tid_'
'Keyword^_'
'pri'
'form'
'Section_'
'twitter^_'
'\u\u\u^_'
'No'
'Left_'
'bi'
'GS'
'>[^_'
'bp_'
'obs\u^_'
'105'
'ceil_'
'cast^_'
'comm_'
'DU'
'Signal^_'
'IN_'
'pa'
'rc'
'ny^_'
'AF'
'bg'
'git'
'dict'
'target'
'RGB^_'
'je'
'clip_'
'redistribute^_'
'health^_'
'xs'
'latex\u^_'
'004'
'red'
'news^_'
'sr_'
'zo'
'nb_'
'Q'
'slot\u^_'
'faces_'
'search'
'fm'
'Te^_'
'charset^_'
'SIGNAL_'
'301'
'domains_'
'pointer_'
'RT^_'
'quantity^_'
'Screen_'
'endpoint\u^_'
'ad'
'thing_'
'album^_'
'Question^_'
'bj_'
'qp'
'mv'
'Za'
'translation^_'
'Implemented_'
'fasta^_'
'Center^_'
'113'
'Do'
'He'
'echo_'
'Got^_'
'Interrupt_'
'epoch^_'
'TRA'
'ie'
'av'
'2009^_'
'bad'
'129'
'erc_'
'yo'
'calendar^_'
''{"^_'
'density^_'
'Try^_'
'frozenset_'
'noise^_'
'j\u^_'
'creates^_'
'xi'
'tzinfo_'
'networks_'
'Aw^_'
'VE'
'(:^_'
'submit_'
've'
'TP'
'we'
'trigger\u^_'
'fu'
'sql'
'Press^_'
'ivar^_'
'Platform^_'
'converted^_'
'optparse_'
'cid_'
'decode^_'
'longitude_'
'bn'
'HO'
'schedule\u^_'
'upper\u^_'
'sd^_'
'DD^_'
'CLASS_'
'know^_'
'bar\u^_'
'seen_'
'eg'
'Received^_'
'detected^_'
'formats^_'
'Tags^_'
'Ds_'
'Certificate^_'
'>>^_'
'zp'
'uv'
'configure\u^_'
'Co^_'
'){^_'
'xs^_'
'srv\u^_'
'passwd_'
'CG^_'
'course_'
'arc^_'
'raw'
'gpu_'
'Ko'
'safe^_'
'users\u^_'
'website^_'
'Parent_'
'datetime\u^_'
'"∅∅∅∅∅"_'
'I'
'border_'
'Scale_'
'board\u^_'
'dd'
'man_'
'KA'
'ac_'
'.7'
'good\u^_'
'mac\u^_'
'dimension_'
'hi_'
'formatted^_'
'sur'
'error'
'116'
'SP^_'
'Symbol^_'
'curses_'
'issues^_'
'particular^_'
'hg'
'Agent_'
'TV^_'
'rev^_'
'hr^_'
'Func^_'
'when\u^_'
'case'
'eg^_'
'attachment^_'
'om^_'
'Environment_'
'fakes_'
'includes^_'
'Dictionary^_'
'step'
'Encoder_'
'GC'
'[]^_'
'public_'
'ov'
'RC'
'La^_'
'Flags^_'
'Analysis^_'
'196'
'VA'
'Min_'
'gr^_'
'forward\u^_'
'mini'
'SB'
'ang^_'
'peer^_'
'PT^_'
'oe'
'cl'
'mat^_'
'ero'
'foobar^_'
'CLI^_'
'LIST\u^_'
'TF'
'hc'
'CU'
'ge'
'relation^_'
'How^_'
'ny_'
'PE'
'RA'
'ue_'
'len'
'Yes^_'
'some'
'gets'
'figsize_'
'parts^_'
'fast^_'
'zy'
'mit'
'cycle^_'
'PP'
'micro'
'tweet_'
'}"^_'
'\\'
'Management^_'
'Mongo^_'
'east^_'
'en\u^_'
'sd_'
'/*^_'
'epochs_'
'library\u^_'
'gene_'
'iteration^_'
'pass'
'nn'
'executor_'
'cm'
'theta^_'
'rgb^_'
'fixtures_'
'yc'
'oc^_'
'size'
'publish_'
'.'
'dx^_'
'Ad^_'
'190'
'curve^_'
'ES'
'DP'
'vec^_'
'items\u^_'
'gc'
'IC'
'GUI^_'
'currency_'
'cra'
'clone^_'
'SET\u^_'
'sensor\u^_'
'mandatory^_'
'137'
'0xd'
'∅l'
'eth^_'
'ga'
''+^_'
'proj_'
'gif^_'
'SO'
'dh'
'114'
'..'
'subclass^_'
'UT'
'ite^_'
'pl'
'fout_'
'[[^_'
'work_'
'ED'
'SP'
'NG^_'
'dit'
'star^_'
'191'
'377^_'
'species_'
'season^_'
'ROOT\u^_'
'ding^_'
'adapter_'
'IMAGE\u^_'
'variant^_'
'ab'
'CM'
'whose^_'
'204'
'119'
'press^_'
'destination\u^_'
'ble'
'bug^_'
'word'
'gra'
'WWWWWWWWWWWWWWW^_'
'processes_'
'Go'
'Transfer^_'
'Fo'
'Part_'
'122'
'run'
'ile^_'
'0xF'
''∅∅∅∅∅∅'_'
'for'
'alpha'
'Generator^_'
'feat_'
'gi_'
'eh'
'dv'
'ou^_'
'ze'
'08_'
'111_'
'mal'
'load'
'Def_'
'wrap^_'
'sizer_'
'volumes^_'
'area\u^_'
'MB^_'
'ipa'
'0000'
'scene^_'
'bridge^_'
'theano_'
'exe_'
'disconnect_'
'bor'
'stu'
'e2_'
'activate_'
'What^_'
'optional_'
'Nu'
'142'
'match'
'Basetypes_'
'ut'
'labels\u^_'
'gui^_'
'inventory_'
'an\u^_'
'stack'
'acquire_'
'permission\u^_'
'Identity^_'
'used\u^_'
'square_'
'Car'
'bot'
'directories^_'
'alert_'
'ele'
'*/^_'
'activate^_'
'std'
'HS'
'item'
'down\u^_'
'ic'
'oc_'
'each\u^_'
'2018^_'
'To'
'kp'
'Du'
'FAKE\u^_'
'possible\u^_'
'zu'
'Retrieve^_'
'197'
'SERVER\u^_'
'TEXT_'
'pc^_'
'itself^_'
'MP'
'xd'
'da'
'ni'
'131'
'pipeline\u^_'
'pn'
'lab^_'
'sites^_'
'Primary^_'
'rand\u^_'
'probs_'
'geo^_'
'complex_'
'br_'
'func'
'runtime_'
'rating_'
'194'
'stubs_'
'Selected^_'
'na'
'bs'
'GA^_'
'qa'
'balance_'
'lt_'
'all'
'cls^_'
'subscription^_'
''('_'
'chain\u^_'
'Extra^_'
'makes^_'
'contains_'
'ser^_'
'dns\u^_'
'internal_'
'music^_'
'sensitive_'
'si_'
'115'
'upgrade^_'
'RP'
'Me'
'As'
'dc'
'"="_'
'+\\^_'
'tracker_'
'classifier_'
'css\u^_'
'Numeric^_'
'Red^_'
'owner\u^_'
'IN'
'∅∅'_'
'ful^_'
'sensor_'
'setting\u^_'
'digits^_'
'io'
'OL'
'two_'
'mount^_'
'default'
'fpath_'
'execution\u^_'
'Game_'
'cookie^_'
'um'
'networks^_'
'shortcuts_'
'Ku'
'dis'
'scalar_'
'/\\^_'
'present_'
'normal\u^_'
'Mesh^_'
'Sa'
'der_'
'repos^_'
'room\u^_'
'entities^_'
'ance^_'
'candidate_'
'positions^_'
'*,^_'
'sun'
'mapping\u^_'
'seq'
'probability^_'
''>'_'
'CK'
'ti_'
'que'
'Je'
'index'
'MIN\u^_'
'md'
'aws\u^_'
'%%^_'
'dns_'
'dr_'
'kg^_'
'vars^_'
'au^_'
'145'
'");^_'
'mo^_'
'label'
'docker\u^_'
'0x10_'
'Failure_'
'MB'
'op'
'keys\u^_'
'II^_'
'Zip^_'
'sd'
'JSON_'
'Us'
'capacity^_'
'dim'
'flavor_'
'reserved^_'
'average_'
'ine_'
'IS'
'hit^_'
'buff_'
'Ce'
'flask\u^_'
'kw'
'iti'
'Timestamp^_'
'ye'
'nk^_'
'radio^_'
'serial\u^_'
'Firefox^_'
'readonly^_'
'Skip^_'
'Fields^_'
'don'
'vocab_'
'EXT^_'
'void\u^_'
'loc\u^_'
'mg'
'event'
'reload_'
'nbsp^_'
'=''
'zen'
'i1_'
'gradient^_'
'bash^_'
'F8_'
'UP_'
'maps_'
'CLIENT\u^_'
'te\u^_'
'KE'
'ning^_'
'cycle_'
'sk'
'Tu'
'ane'
'*)'
'oh'
'neighbors_'
'Int'
'Ur'
'U\u^_'
'PDF^_'
'0xA'
'sci'
'Serial^_'
'give^_'
'spam^_'
'160'
'nat'
'fg'
'kb'
'attach_'
'uri'
'print'
'136'
'ss'
'132'
'ssi'
'MEDIA\u^_'
'VALUE^_'
'ora'
'grp_'
'wr'
'CO'
'art^_'
'abs'
'TF^_'
'ua'
'annotation_'
'sig\u^_'
'graph'
'jp'
'lock'
'ai^_'
'song_'
'sites_'
'pip^_'
'\\""_'
'oa'
'row'
'dar'
'tok_'
'Pass^_'
'AB'
'uni'
'cw'
'cap_'
'work'
'added_'
'tone^_'
'taken^_'
'registration^_'
'course\u^_'
'gettext_'
'symmetrical^_'
'realm_'
'126'
'thing^_'
'experiment_'
'dl_'
'noise_'
'colour_'
'precision^_'
'stub_'
'148'
'jid_'
'mk'
'defs_'
'vocab\u^_'
'fy_'
'tot'
'short_'
'Tags_'
'123'
'car'
'152'
'requires\u^_'
'issue\u^_'
'Person_'
'sn'
'yb'
'human^_'
'linear\u^_'
'conf'
'xb'
'pyt'
'331'
'Wa'
'logged^_'
'prog^_'
'season_'
'ine'
'console\u^_'
'yaml\u^_'
'selection\u^_'
'compiler_'
'PA'
'OD'
'wd'
'Suite_'
'ew'
'Cancel^_'
'sm'
'wf'
'SHA^_'
'funcs_'
'K'
'Notify^_'
'Lock^_'
'kwds_'
'ess^_'
'xyz^_'
'bl'
'solution^_'
'changed\u^_'
'activity\u^_'
'ter'
'Station^_'
'140'
'sp'
'ORDER^_'
'jc'
'Phone^_'
'b2_'
'vr'
'Test'
'dn^_'
'man'
'sparse\u^_'
'rid_'
'EN^_'
'Val'
'FC'
''∅∅∅∅∅'_'
'Engine_'
'letter^_'
'multi'
'assets^_'
'AF^_'
'definitions^_'
'CT^_'
'MSG\u^_'
'PER\u^_'
'USER_'
'Len^_'
'Exists_'
'De^_'
'offsets_'
'141'
'change'
'ci_'
'openstack^_'
'die'
'ch\u^_'
'ensure^_'
'uint8_'
'registry^_'
'freq\u^_'
'nu'
'MODULE^_'
'mocker_'
'124'
'Cs'
'Ri'
'never^_'
'review\u^_'
'ph'
'Tor'
'win'
'degree_'
'TEMPLATE\u^_'
'003^_'
'posts_'
'gal'
'bundle^_'
'510'
'unit'
'deploy^_'
'the'
'Allow^_'
'1.3'
'On'
'idi'
'En'
'PL'
'Mo'
'partial^_'
'					^_'
'rain'
'Rate_'
'Value\u^_'
'RS'
'endpoints_'
'LI'
's\u_'
'pha'
'pub^_'
'ver'
'cb\u^_'
'GN'
'should_'
'bank^_'
'IT^_'
'Metric^_'
'require_'
'};^_'
'Tool_'
'ua_'
'rad_'
'assign^_'
'calendar_'
'ld^_'
'dy^_'
'Vi'
'factory^_'
'uf'
'6\u^_'
'python'
'payment^_'
'choices^_'
'on'
'corpus_'
'OM'
'LB'
'Tip_'
'back'
''(?^_'
'PI^_'
'proc\u^_'
'RA^_'
'mh'
'Au'
'LR'
')}'
'transfer\u^_'
'manager\u^_'
'}]'
'ET^_'
'ium^_'
'acl_'
'iteration_'
'Loss^_'
'reports^_'
'har'
'RIGHT_'
'Loop_'
'experiment\u^_'
'that_'
'ita'
'book\u^_'
'tester_'
'10.'
'368'
'ou'
'DL'
'tests\u^_'
'recv\u^_'
'lr'
'Bot^_'
'Word_'
'VE^_'
'pwd_'
'pixels^_'
'ku'
'rf_'
'URL\u^_'
'zipfile_'
'"!^_'
'accuracy_'
'mimetype_'
'parallel^_'
'acc^_'
'lin^_'
'yellow^_'
'139'
'qt^_'
'allowed_'
'urn^_'
'bri'
'sp\u^_'
'salt_'
'gb^_'
'plan^_'
'VC'
'ath'
'capture\u^_'
'RO'
'rse'
'mi'
'program\u^_'
'og'
'ops^_'
'(''
' _'
'tablename_'
'Back'
'Repository^_'
'mo_'
'spacing_'
'choose^_'
'win\u^_'
'151'
'ah'
'0xC'
'Light^_'
'143'
'cached^_'
'Operating^_'
'it\u^_'
'Execute^_'
'rh'
'Equal^_'
'fre'
'UA'
'asset_'
'dt\u^_'
'Select_'
'Ed'
'vertex_'
'127_'
'capture_'
'neutron_'
'dbus_'
'CONFIG^_'
'Dynamic^_'
'conn^_'
'us\u^_'
'NO'
':{^_'
'37.41039_'
'122.059652_'
'restore^_'
'OC'
'06_'
'sender^_'
'xo'
'bias^_'
'qi'
'th'
'beam_'
'GT'
'332'
'dashboard^_'
'Energy^_'
'imshow_'
'vectors_'
'sk^_'
'"]^_'
'FC^_'
'hook^_'
'Structure_'
'134'
'LP'
'home'
'sti'
'EM'
'fit'
'195'
'cop'
'Reg^_'
'NT'
'save'
'135'
'SI'
'xmin_'
'0.04'
'ram^_'
'"('
'0xFF_'
'requirements_'
'ir'
'gray^_'
'what_'
'accounts_'
'week^_'
'2001^_'
'Unless_'
'svntest_'
'prod_'
'maximum_'
'Anonymous^_'
'Account_'
'arcpy_'
'iter\u\u_'
'sym\u^_'
'behavior^_'
'clear'
'rn'
'ad\u^_'
'ordering_'
'charge^_'
'07_'
'Packet_'
'359'
'curr_'
'296'
'accuracy^_'
'va'
'Assert^_'
'TE^_'
'mount\u^_'
'ET'
'arc'
'sr^_'
'GL_'
'bed^_'
'videos^_'
'Mapping^_'
'Specify^_'
'sal'
'329'
'Organization^_'
'CI'
'pkg'
'mb'
'Win^_'
'green_'
'nop'
'Catalog^_'
'hope^_'
'0.03'
'gov^_'
'();^_'
'val'
'uc'
'una'
'land^_'
'//'
'Script_'
'failed\u^_'
'Editor^_'
'}'^_'
'BD'
'ass'
'symbol\u^_'
'nx'
'guest^_'
'sending^_'
'Sort^_'
'Ls^_'
'ty'
'ed'
'"*^_'
'grid'
'Ui_'
'dm'
'sz_'
'guid_'
'Empty_'
'PASSWORD^_'
'lar'
'bp'
'se\u^_'
'138'
'cy_'
'ros'
'202'
'dep\u^_'
'tu'
'fi^_'
'Arg_'
'Te'
'correct_'
'Scan^_'
'basedir_'
'editable_'
'LOG^_'
'ela'
'redis\u^_'
'Space_'
'ar\u^_'
'Get_'
'pattern\u^_'
'ry'
'De'
'assign\u^_'
'cat\u^_'
'streams_'
'EB'
'pop\u^_'
'Work^_'
'dom^_'
'pp'
'back\u^_'
'creator_'
'layer'
'[]'
'286'
'lstrip_'
'markup_'
'initialize^_'
'products^_'
'MA'
'bit\u^_'
'payload\u^_'
'fullname_'
'rpc^_'
'points\u^_'
'dicts_'
''"'
'phi^_'
'combo^_'
'";^_'
'FU'
'unable^_'
'cov_'
'Bin^_'
'note\u^_'
'r∅'
'tree'
'SETTINGS^_'
'VT'
'mi_'
'WA'
'BASE_'
'ctx^_'
'/?^_'
'rotation^_'
'OID_'
'photo^_'
'og^_'
'Er'
'nm'
'profiles_'
'380'
'svn^_'
'workdir_'
'OUTPUT^_'
'mb^_'
'cap^_'
'xh'
'CO^_'
'155'
'xmax_'
'Ci'
'BO'
'PO'
'Package_'
'294'
'Arg^_'
'requirements^_'
'conversion^_'
'107'
'attempt^_'
'Audience^_'
'500'
'GP'
'qc'
'palette_'
'SAPT^_'
'Initial^_'
'repeat^_'
'decoder_'
'Prefix_'
'0.10'
'Errors_'
'receiver_'
'icons^_'
'cha'
'512^_'
'PT'
'"//^_'
'dark'
'Rest^_'
'ste'
'playlist_'
'd∅'
'Wrong^_'
'band_'
'overwrite_'
'supported\u^_'
'Post'
'rp^_'
'core'
'154'
'tz'
'gn'
'subject\u^_'
'indicating^_'
'men'
'sudo_'
'waiting^_'
'gw'
'BB^_'
'tion\u^_'
'wise^_'
'pixels_'
'VP^_'
'262'
'cp'
'cell'
'packet\u^_'
'Plot_'
'ih'
'itemlist_'
'equal\u^_'
'bo^_'
'Mean^_'
'capacity_'
'identity\u^_'
'ao'
'470'
'libs_'
'fin_'
'pytest^_'
'javascript^_'
'tes^_'
'googleapis^_'
'gh'
'timer^_'
'166'
'non'
'DEF'
'nf'
'ui'
'reduce^_'
'271'
'];^_'
'DJANGO^_'
'          _'
'ri^_'
'Sam'
'era'
'be'
'Cookie^_'
'ena'
'seg_'
'ack^_'
'Are^_'
'language\u^_'
'Open_'
'ig'
'Mu'
'datasets^_'
'go\u^_'
'Lin'
'bd'
'nce_'
'Modified^_'
'predict\u^_'
'AE'
'No_'
'news'
'ii'
'UP'
'wraps_'
'()'
'encode^_'
'lang\u^_'
'Snapshot^_'
'ul'
'kt'
'm∅'
'Peer^_'
'simple_'
'many_'
'processes^_'
'hv'
'open'
'ep'
'spaces^_'
'opener_'
'simple'
'calc_'
'lon'
'man\u^_'
'Hash_'
'">'_'
''<'_'
'win32'
'js\u^_'
'sf_'
'STATIC\u^_'
'tracks_'
'colors^_'
'1.2'
'ca\u^_'
'Fla'
'Instruction_'
'156'
'"{}'
'station_'
'de\u^_'
'S3^_'
'Processor_'
'Unsupported^_'
'Pixmap_'
'visit_'
'rec\u^_'
'fails^_'
'relation_'
'Ju'
'dy'
'ort_'
'Split^_'
'cl^_'
'levelname^_'
'∅_'
'ID'
'ap'
'filtered^_'
'AG'
'references^_'
'expect^_'
'Intended^_'
'Deserialize^_'
'repo'
'UI_'
'Net'
'Tensor_'
'rev'
'gets^_'
'Real^_'
'JS^_'
'JA'
'rea'
'syntax_'
'down'
'Gra'
'mdst^_'
'pack^_'
'MDST^_'
'bt_'
'btn\u^_'
'env'
'Shared^_'
'NV'
'alg_'
'bhadron^_'
'BHADRON^_'
'authorization^_'
'redis^_'
'Adds^_'
'tc^_'
']]^_'
'bro'
'dummy_'
'002'
'edge'
'arrays_'
'168'
'density_'
'getting^_'
'NC'
'posts^_'
'Signature^_'
'hg^_'
'1.7'
'180'
'NL'
'gateway_'
'zb'
'Del'
'snap^_'
'aa_'
'machine\u^_'
'"\u\u\uCARET\u\u\u^'
'inst\u^_'
'her'
'Ka'
'5000_'
'ree'
'VP'
'∅∅∅'
'ax2_'
'until\u^_'
'Ta'
'une'
'NN'
'Otherwise^_'
'133'
'isa'
'css_'
'glo'
'typehandlers_'
'local'
'ema'
'cursor\u^_'
'ssh_'
'Fi'
'282'
'Pl'
'zhou^_'
''|^_'
'gl_'
'ol'
'NET'
'Loading^_'
'windows_'
'me\u^_'
'checking^_'
'any\u^_'
'sam'
'po^_'
'258'
'Ze'
'once_'
'161'
'sessions_'
'ji'
's2'
'pr^_'
'margin_'
']*'
'FL'
'mgmt^_'
'mis'
'ise'
'hits_'
'hparams_'
'question\u^_'
'bio'
'VALID\u^_'
'Na'
'SOFTWARE^_'
'invalid_'
'453'
'wb'
'Right_'
'Vertex^_'
'283'
'NET^_'
'jn'
'unexpected^_'
'HOME^_'
'warranty^_'
'TS^_'
'material^_'
'inf'
'Training^_'
'transport\u^_'
'leaf^_'
'Will^_'
'\\''
'gradient_'
'BC^_'
'make_'
'ga\u^_'
'partition\u^_'
'TA'
'415'
'her^_'
'ATTR\u^_'
'find'
'cut^_'
'sel'
'uk'
'conv'
'G'
'Ar'
'inter'
'vel_'
'Required_'
'Force^_'
'lines\u^_'
'containers_'
'800'
'1d_'
'single_'
'tup_'
'pending\u^_'
':'^_'
'ND^_'
'09_'
'395'
'CY'
'ef_'
'table'
'950'
'AL\u^_'
'solve_'
'nose_'
'exist_'
'copy'
'sequences_'
'oi'
'tk'
'Backend_'
'UM'
'MODEL_'
'total'
'lb_'
'Axis^_'
'statistics_'
'need\u^_'
'"∅∅∅∅∅∅"_'
'online^_'
'this'
'BG'
'flavor^_'
'groupby_'
'guess_'
'frappe_'
'unpack\u^_'
'1.4'
'292'
'VALUE_'
'2.5_'
'which_'
'pe_'
'Jo'
'ble\u^_'
'oslo\u^_'
'eta_'
'logo^_'
'hi'
'ACTION\u^_'
'star'
'slots_'
'110_'
'sin'
'cv'
'Pattern^_'
'Bytes_'
'information_'
'())^_'
'230'
'Average^_'
'ci'
'rn^_'
'lli'
'DM'
'nv_'
'difference_'
'LENGTH_'
'west^_'
'hooks_'
'War'
'enums_'
'implement^_'
'402'
'CH'
'QA'
'FO'
'ST\u^_'
'mo'
'GI'
'414'
'kc'
'yu'
'formula_'
'wsgi^_'
'153'
'FP'
'ini'
'rf^_'
'Subject^_'
'IR^_'
'u'
'US'
'cut_'
'cache'
'backends_'
'tz^_'
'nse'
'ia_'
'Feed^_'
'attach\u^_'
'git_'
'quiet_'
'bbox\u^_'
'e-0'
'800_'
'scroll^_'
'BA^_'
'REST^_'
'displayed^_'
'gr'
'cells^_'
'first'
'stat'
'lc_'
'rw'
'started_'
'Mask_'
'Library_'
'en'
'toggle^_'
'arm^_'
'LOG'
'la_'
'sprite_'
'Report_'
'workflow_'
'CI^_'
'Sum_'
'scatter_'
'descr_'
'256'
'orig^_'
'bre'
'ized^_'
'packets^_'
'ks'
'sg^_'
'Asset^_'
'attach^_'
'GMT^_'
'inventory^_'
'0x2'
'osc'
'dm^_'
'gar'
'phone_'
'Std^_'
'alt\u^_'
'goal_'
'v'
'agents_'
'Ti'
'robot_'
'journal^_'
'Timestamp_'
'0.05'
'WI'
'subset_'
'120^_'
'staff^_'
'AM^_'
'BP'
'inds_'
'Stretch_'
'physical^_'
'UB'
'generation^_'
'rad'
'land'
'aaa^_'
'EMAIL\u^_'
'nl'
'jar^_'
'rt'
'277'
'005'
'111'
'ascii\u^_'
'tablename\u\u_'
'subparsers_'
'tau_'
'CB^_'
'cy'
'sma'
'007'
'Ho'
'12.'
'014'
'reward_'
'Book^_'
'seg'
'tp^_'
'OR\u^_'
'Events_'
'jm'
'UP^_'
'pose_'
'"""<^_'
'system'
'RN'
'left'
'ri_'
'fd'
'strides_'
'dct_'
'real'
'APP\u^_'
'Speed^_'
'cal_'
'notice^_'
'HD'
'images\u^_'
'ate'
'indicates^_'
'Play^_'
'tabs_'
'pickle^_'
'level'
'391'
'mor'
'sum'
'pid'
'REQUEST^_'
'PF'
'ya^_'
'Rows_'
'scores^_'
'pixel\u^_'
'117'
'hbox_'
'Background^_'
'diff'
'den^_'
'Only_'
'modified\u^_'
'repos_'
'par^_'
'Price^_'
'extent_'
'TLS^_'
'vendor^_'
'hor'
'If_'
'424'
'until_'
'terminal^_'
'AU'
'GP^_'
'hin'
'Cor'
'ea'
'ida'
'headers\u^_'
'NG'
'Iteration_'
'Un'
'sid^_'
'1.9'
'dm_'
'174'
'material_'
'and'
'Display_'
'VS'
'ping_'
'BL'
'various^_'
'MODE_'
'Volume_'
'analysis\u^_'
'face\u^_'
'album_'
'Lib^_'
'WM'
'∅n'
'Ya'
'mail\u^_'
'ub_'
'each_'
'454'
'Year^_'
'406'
'poly_'
'Print_'
'.)'
'Tools^_'
'ole'
'ak^_'
'TM'
'Support^_'
'ton^_'
'DT^_'
'make'
'em'
'act\u^_'
'997'
'Back^_'
'uint32_'
'recipe^_'
'ban'
'HP'
'userid_'
'google\u^_'
'fab'
'Fast^_'
'ki'
'uu'
'confirm^_'
'Term^_'
'0.11'
'335'
'sparse_'
'ERR\u^_'
'math\u^_'
'di'
'505'
'Objects_'
'Services^_'
'Literal_'
'current'
'PA^_'
'At'
'price\u^_'
'rho'
'tk^_'
'GE'
'il_'
'phi'
'ple'
'1.5'
'fraction^_'
'stock\u^_'
'buf^_'
'yml^_'
'Additional^_'
'BE'
'duplicate^_'
'platform\u^_'
'sar'
'application\u^_'
'begin\u^_'
'assignment^_'
'stream'
'MO'
'qm'
'difference^_'
'297'
'fully^_'
'median_'
'Pi^_'
'147'
'id'
'scheduler^_'
'003'
'Timeout_'
'collect\u^_'
'...'
'009'
'class\u_'
'295'
'lat\u^_'
'deg_'
'0xE'
'187'
'Per'
'FD'
'AR'
'lb^_'
'Approved^_'
'playlist\u^_'
'Ext^_'
'fp^_'
'prediction_'
'attr'
'executable^_'
'tags\u^_'
'ab_'
'Constants_'
'genome^_'
'hn'
'TEMPLATE_'
'kel'
'degrees^_'
'111^_'
'ko^_'
'wg'
'stop'
'hy'
'UM^_'
'tions^_'
'224'
'false_'
'matched^_'
'lin'
'atom'
'Fill^_'
'ast^_'
'vn'
'149'
'rb_'
'Now^_'
'population^_'
'logical^_'
'ME'
'110'
'ox_'
'pyg'
'caller_'
'Contents^_'
'193'
'ks_'
'cutoff_'
'actor^_'
'DATE^_'
'pec_'
'AE^_'
'son'
'Accessor^_'
'nit'
'plural_'
'chart^_'
'455'
'dynamic\u^_'
'HTML_'
'ner^_'
'levels^_'
'EL'
'tils_'
'multi_'
'nr^_'
'handling^_'
'ticket^_'
'flat'
'average\u^_'
'One_'
'als^_'
'subfield^_'
'parent'
'210'
'len\u\u_'
'beam^_'
'co\u^_'
'bindings_'
'!'
'BF'
'boolean_'
'lap'
'272'
'kd'
'Implementation^_'
'Extractor_'
'definitions_'
'sync'
''@'_'
'ag^_'
'EI'
'diag_'
'0.75_'
'276'
'temporary^_'
'273'
'isnan_'
'144'
'AM'
'SL'
'rec^_'
'ey_'
'171'
'blueprint_'
'xyz_'
'blob\u^_'
'Base'
'Classifier_'
'whole^_'
'sen'
'399'
'plane^_'
'Va'
'Click^_'
''{}'
'421'
'testdir_'
'kill_'
'selector^_'
'alignment^_'
'isdigit_'
'Site_'
'::'
'sparse^_'
'vectors^_'
'sbox_'
'Domain_'
'204_'
'Pa'
'angle\u^_'
'queries^_'
'free'
'∅∅∅∅'
'transition^_'
'rie'
'partial\u^_'
'Op'
'lt'
'acc'
'runs_'
'track'
'176'
'have\u^_'
'Failure^_'
''\\\\'_'
'preview^_'
'Apply^_'
'cho'
've\u^_'
'fromstring_'
'sigma\u^_'
'tur'
'rx_'
'0.09'
'Center_'
'side'
'IV'
'bc_'
'embed_'
'dig'
'iv'
'IE'
'ris'
'combo_'
'mtime_'
'Sheet_'
'Tri'
'404^_'
'EVENT\u^_'
'Fin'
'rotate^_'
'307'
'373'
'modify\u^_'
'UL'
'nm_'
'lw_'
'CMD\u^_'
'tn'
''\\'
'235'
'Mouse^_'
'OFP'
'fig'
'cla'
'Schedule^_'
'560'
'year\u^_'
'0.06'
']+'
'a2'
'prediction^_'
'extended^_'
'workflow\u^_'
'Is'
'CL'
'accepted^_'
'Den'
'iw'
'ger'
'Supported^_'
'width\u^_'
'146'
'ier^_'
'ant'
'Hub^_'
'WS'
'hs_'
'bn^_'
'Rx^_'
'250^_'
'bootstrap^_'
'INTER'
'partner^_'
'overwrite^_'
'iloc_'
'ator^_'
'ri'
'return'
'RB'
'defines^_'
'sse'
'cur'
'codes^_'
'iterations^_'
'Wo'
'mesh\u^_'
'consumer\u^_'
'comma^_'
'315'
'Shell^_'
'Score_'
'mat\u^_'
'EO'
'OO'
'17.'
'Ba'
'SW'
'pdb_'
'arr^_'
':[^_'
'mer'
'scopes_'
'nto'
'incorrect^_'
'GU'
'IA'
'ina'
'CB'
'background\u^_'
'int64_'
'can'
'RI'
'consumer^_'
'cls\u^_'
'HEAD^_'
'occ'
'ave'
'critical_'
'mappings_'
'events\u^_'
'Wi'
'a1'
'flat^_'
'stor'
'ones^_'
'rand'
'wiki'
'resize^_'
'ON_'
'Extract^_'
'Ab'
'268'
'fr'
'directory\u^_'
'boundary^_'
'0x01_'
'343'
'day'
'Ct'
'normpath_'
'357'
'wi'
'autospec_'
'checkpoint\u^_'
'HEIGHT_'
'peak^_'
'Definition_'
'notification\u^_'
'nk'
'Bi'
'RS^_'
'1e'
'327'
'sel^_'
''<'
'172'
'157'
'pm^_'
'major_'
'resolve_'
'TIME^_'
']/^_'
'Ste'
'Gateway^_'
'he'
'Cp'
'"../^_'
':#^_'
'188'
'returning^_'
'173'
'Trigger^_'
'positive\u^_'
'new\u\u_'
'284'
'cr'
'VB'
'Auto'
'ti'
'jt'
'Pr'
'organization_'
'clients^_'
'Pipeline^_'
'Constructor^_'
'220'
'(?:^_'
'hm^_'
'focus^_'
'imp_'
'head'
'plural^_'
'cr^_'
'=\\"'
'resolve^_'
'symbols^_'
'ask^_'
'ssa'
'zip'
'logic_'
'instruction_'
'Alpha^_'
'Success^_'
'Chat^_'
'336'
'zoom^_'
'*'
'socket\u^_'
'QV^_'
'Merge^_'
'ticks_'
'exact^_'
'CN'
'185'
'say_'
'City^_'
'Bank^_'
'0x000'
'kh'
'am_'
'221'
'SM'
'Failed_'
'ich'
'fake'
'nac'
'focus_'
'Temperature^_'
'restore\u^_'
'na_'
'hint_'
'ons'
'267'
'Ds'
'DATA'
'bi^_'
'English^_'
'cover^_'
'escape^_'
'511'
'Change_'
'287'
'401_'
'flat\u^_'
'coeff_'
'xi_'
'429'
'203'
'war'
'TAT'
'received_'
'Type'
'cos'
'SC^_'
'logout_'
'power'
'vi'
'best_'
'PH'
'Validate^_'
'':'
'Routing^_'
'192'
'              _'
'112'
'when_'
'destroy^_'
'358'
'lang'
'WARNING_'
'18.'
'125'
'low'
'rights^_'
'transaction\u^_'
'212'
'AL_'
'tg'
'printer_'
'://'_'
'fin'
'hand_'
'wav^_'
'boot\u^_'
'adapt'
'eni'
'Mark^_'
'coord\u^_'
'UC'
'mouse\u^_'
'"#"_'
'floating^_'
'dns'
'tl_'
'namespace\u^_'
'361'
'lp_'
'su'
'Asia^_'
'sol'
'339'
'223'
'opcode_'
'WORK'
'580'
'any'
'ada'
'relu^_'
'performance^_'
'rl_'
'158'
'dest'
'222'
'prepare_'
'Country^_'
'803'
'\u\uCARET\u\u\u'
'Definition^_'
'vlan\u^_'
'[\u\u\uCARET\u\u\u'
'159'
'lic'
'version'
'Scroll^_'
'ON'
'Backup^_'
'slots\u\u_'
'hex\u^_'
'tar'
'\u\u\uCARET\u\u\u\\'
'}}'_'
'alive_'
'293'
'Ck^_'
'494'
'sent\u^_'
'Segment^_'
'libs'
'v1\u^_'
'datatype_'
'mac'
'162'
'stub\u^_'
'pyb'
'shell\u^_'
'drive^_'
'car^_'
'LINE^_'
'oo'
'Man'
'starts^_'
'Problem^_'
'sin^_'
'408'
'TT'
'ug'
'Id'
'445'
'chart_'
'VO'
'signed^_'
'builder^_'
'OV'
'610'
'170'
'980'
'decimal\u^_'
'Seq_'
'proj\u^_'
'Des'
'pw'
'outside^_'
'Off^_'
'occurred^_'
'LE'
'sentence^_'
'age\u^_'
'notifications^_'
'launch^_'
'OUTPUT\u^_'
'Editor_'
'TV'
'551'
'ure'
'400'
'341'
'Vm^_'
'tm'
'471'
'painter_'
'EXPAND_'
'xy^_'
'loaded_'
'dem'
'log10_'
'gobject_'
'unt_'
'asi'
'County^_'
'TT^_'
'schemas^_'
'requests\u^_'
'fla'
'border\u^_'
'437'
'emp'
'416'
'contextlib_'
'enc_'
'sha1_'
'0.13'
'toolbar_'
'Operator^_'
'qs'
'languages_'
'From_'
'UN'
'680'
'ore_'
'mel'
'Horizontal^_'
'Gaussian^_'
'186'
'asctime^_'
'Stub^_'
'mono^_'
'DF^_'
'has'
'Mi'
'free_'
'extra'
'period\u^_'
'nos'
'perms_'
'/.^_'
'sil'
'fw'
'mut'
'px'
'118'
'qu'
'evaluate^_'
''!^_'
'Transaction_'
'SUCCESS_'
'new'
'TB'
'Pe'
'addr'
'GROUP^_'
'592'
'regex\u^_'
'tenant_'
'Win'
'319'
'zero'
'bk'
'213'
'coord^_'
'je^_'
'ation\u^_'
'206'
'":{"^_'
'366'
'vin'
'calculated^_'
'mt_'
'499'
'norm'
'px_'
'titles_'
'aw'
'517'
'geo'
'super^_'
'Override^_'
'Chrome^_'
'NORMAL_'
'inplace_'
'*\\'
'zs'
'Ge'
'Objects^_'
'pandas^_'
'289'
'Data'
'process'
'Doc_'
'special\u^_'
'ori'
':-^_'
'Create_'
'Keys^_'
'\\/^_'
'RF'
'zc'
'secondary^_'
'forms^_'
'child'
'peer_'
'dan'
'atol_'
'Li'
'Cy'
'cost\u^_'
'ack_'
'SF'
'velocity_'
'par'
'Units^_'
'Monitor^_'
'fg^_'
'measure^_'
'topics_'
'dirpath_'
'Bin'
'∅∅∅∅∅∅∅∅∅∅∅∅∅^_'
'binding^_'
'820'
'TR'
'ni^_'
'pro'
'zoom_'
'349'
'HU'
'620'
'xxx^_'
'union_'
'submission^_'
'015'
'authenticated_'
'av^_'
'Registry_'
'trans'
'FF'
'CHOICES_'
'xf'
'RL'
'323'
'570'
'cx_'
'term'
'898'
'normalized^_'
'MR'
'Bool_'
'hw'
'cuda_'
'Ir'
'clip\u^_'
'ec'
'filtered_'
'vtk^_'
'blah^_'
'Raster^_'
'576'
'wu'
'"></^_'
'434'
'orders_'
'visit^_'
'inv\u^_'
'matplotlib^_'
'art'
'tau'
'flux^_'
'gp'
'Cs^_'
'mar'
'13.'
'sz'
'Card_'
'mock'
'air'
'checksum^_'
'nsp'
'cherrypy_'
'cancel\u^_'
'point'
'problems^_'
'matcher_'
'san'
'FB'
'dependency^_'
'YE'
'Out'
'SERVICE\u^_'
'Decode^_'
'finish^_'
'TC'
'PD^_'
'sat'
'fr_'
'306'
'362'
'developer^_'
'Second^_'
'Rt'
'features\u^_'
'312'
'020'
'Owner^_'
'044'
'175'
'deploy\u^_'
'160_'
'hits^_'
'209'
'gh^_'
'Pre'
'Col^_'
'dom'
'231'
'ow'
'basic_'
'cre'
'dal'
'Ben'
'lb\u^_'
'sl_'
'answer\u^_'
'caption_'
't∅'
'alarm^_'
'554'
'xv'
'Destination^_'
'354'
'across^_'
'stroke^_'
'Env_'
'distances_'
'ata^_'
'query'
'textwrap_'
'flow'
'colour^_'
'RM'
'PB'
'Desc_'
'vo^_'
'V2_'
'edi'
'182'
'ak'
'syn'
'processed\u^_'
'argmax_'
'timestamp\u^_'
'701'
'feed'
'song^_'
'du'
'Checking^_'
'Mod^_'
'are\u^_'
'letters_'
'om_'
'nob'
'c∅'
'Color'
'eco'
'opens'
'tempdir_'
'part'
'iv_'
'0x8_'
'ow_'
'rp'
'Rs'
'IB'
'bg\u^_'
'sla'
'recursive_'
'hl'
'vd'
'arrow^_'
'506'
'li'
'Spectrum^_'
'similar^_'
'TD'
'189'
'+)'_'
'tom'
'quota\u^_'
'T'
'air^_'
'ag'
'attached^_'
'Expr_'
'classification^_'
'ay_'
'styles_'
'ACC'
'writerow_'
'Shift^_'
'descriptor^_'
'SD^_'
'nk_'
'656'
'Za^_'
'164'
'Amazon^_'
'fl'
'ase'
'dedent_'
'491'
'850'
'evaluation^_'
'import'
'ymax_'
'mon^_'
'dos^_'
'wa'
'rin'
'+=^_'
'chrom_'
'Drop^_'
'deco'
'integers^_'
'prior^_'
'sc'
'281'
'sea'
'article\u^_'
'484'
'524'
'format'
'Filename^_'
'GET'
'kill^_'
'als_'
'TE'
'Be'
'sk_'
'contenttypes^_'
'reads_'
'getattr\u\u_'
'490'
'vor'
'half^_'
'ted_'
'OUT_'
'102_'
'Ls'
'IE_'
'gui\u^_'
'radians_'
'Indent_'
'logic^_'
'computed^_'
'":'
'pd^_'
'451'
'352'
'990'
'Listener_'
'457'
'Reader^_'
'clusters^_'
'wagtail_'
'go'
'movie_'
'SOCK\u^_'
'Safari^_'
'Visible_'
'INPUT^_'
'1.6'
'named\u^_'
'rho^_'
'kon'
'GEN'
'places^_'
'pat_'
'cap'
'ace^_'
'obtain^_'
'407'
'Sin'
'`)^_'
'sentinel_'
'MEM'
'LC^_'
'isp'
'tl^_'
'ain^_'
'100000_'
'gt\u^_'
'Encoding^_'
'GA'
'602'
'ordered\u^_'
''?^_'
'wind^_'
'Non'
'FE^_'
'Constant^_'
'740'
'OSI^_'
'upgrade_'
'deg^_'
'PASSWORD_'
'facts_'
'sli'
'rp_'
'deployment\u^_'
'285'
'mw'
'qr'
'\u\u.^_'
'GM'
'instrument_'
'xe'
'oy'
'monitor\u^_'
'esc'
'ir\u^_'
'light_'
'214'
'Cu'
'rx^_'
'submission_'
'encoded_'
'ven'
'423'
'YM'
'DOWN_'
'Share^_'
'eti'
'180^_'
'467'
'pdf'
'MAN'
'quit^_'
'fi'
'profiles^_'
'define\u^_'
'Resources^_'
'deserialize_'
'INET_'
'resolver_'
'attachment_'
'XI'
'531'
'Be^_'
'bal'
'ene'
'trying^_'
'shift\u^_'
'vp'
'606'
'pars_'
'publish\u^_'
'charset_'
'chat_'
'intersection_'
'wk'
'ev'
'460'
'Screen^_'
'measure_'
'OR_'
'star_'
'hold^_'
'front^_'
'Ch^_'
'episode\u^_'
'SH'
'RC^_'
'461'
'523'
''--'_'
'MARK'
'timezone^_'
'STATUS_'
'accept\u^_'
'LU'
'Features_'
'psi'
'minor^_'
'daemon^_'
'ard^_'
'isoformat_'
'acc\u^_'
'inc^_'
'month\u^_'
'audio_'
'314'
''],^_'
'kan'
'hard'
'ball^_'
'uo'
'fan'
'production^_'
'notebook_'
'tick\u^_'
']|^_'
''#'
'folders_'
'GC^_'
'Archive^_'
'module\u\u_'
'frac^_'
'Distribution^_'
'435'
'15.'
'proto\u^_'
'inc_'
'going^_'
'317'
'ax\u^_'
'und^_'
'HD^_'
'gzip_'
'ke_'
'authors_'
'Direct^_'
'About^_'
'364'
'parse'
'tiles_'
'Red'
'00041834^_'
'CN^_'
'repository\u^_'
'#\\^_'
'spin^_'
'activation^_'
'center'
'getpass_'
'secs_'
'blue_'
'1080^_'
'ky^_'
'as'
'tau^_'
'scenario^_'
''∅∅^_'
'cd'
'related_'
'433'
'gene'
'Qt5_'
'actually^_'
'Twitter^_'
'0xB'
'?,^_'
'TO'
'270'
'SIZE^_'
'431'
'\u\\^_'
'ib'
'obs'
'emb'
'rib'
'mag'
'Revision^_'
'AAA^_'
'pre'
'Le'
'0.07'
'mail'
'kl'
'NOTE^_'
'Ye'
'mb_'
'enough^_'
'bus'
'ev^_'
'1.1_'
'545'
'STATUS^_'
'ale'
'cent'
'Added^_'
'ort^_'
'hm'
'late'
'fort'
'389'
'wsgi_'
'398'
'noise\u^_'
'SG'
'547'
'Hook_'
'skin^_'
'clip^_'
'ce\u^_'
'370'
'ying^_'
'circle^_'
'clock^_'
'numpy\u^_'
'inv'
'dp^_'
'Vm'
'Panel^_'
'Particle^_'
'high\u^_'
'locator_'
'UI'
'vertex\u^_'
'cfg'
'longer^_'
'dpi_'
'assignment_'
'script'
'balance^_'
'recipe_'
'419'
'Res^_'
'disabled_'
'functionality^_'
'043'
'round\u^_'
'Delta^_'
'proj^_'
'N'
'Meta'
'fileno_'
'nodetype^_'
'CA'
'TC^_'
'ten^_'
'fragment_'
'logging\u^_'
''}'_'
'169'
'completed_'
'lc^_'
'013'
'ght^_'
'cos^_'
'rid'
'is'
'372'
'fh'
'logout^_'
'Secret^_'
'strategy^_'
'things^_'
'"+^_'
'ground^_'
'Har'
'608'
'Brush_'
'.</^_'
'CAT'
'ica'
'hard^_'
'measurement^_'
'0.14'
'zm'
'geo_'
'req'
'flux_'
'∅c'
'inputs\u^_'
'RET'
'elo'
'APPS_'
'})'_'
'rotate_'
'396'
'996'
'pie'
'rray_'
'360_'
'payment\u^_'
'410'
'Json_'
'Condition_'
'217'
'ado^_'
't'
'469'
'equivalent^_'
'ship^_'
'much^_'
'demo'
'rename^_'
'Sal'
'Health^_'
'xbmcgui_'
'More^_'
'RF^_'
'project'
'278'
'"+"_'
'layout\u^_'
'dag_'
'bias\u^_'
'interp_'
'hf'
'008'
'unknown\u^_'
'geo\u^_'
'215'
'.1_'
'pen_'
'pair\u^_'
'Duration^_'
'grep^_'
'uh'
'sou'
'update'
'south_'
'Condition^_'
'or'
'eri'
'Ke'
'lp^_'
'week_'
'REL'
'vl'
'bounds^_'
'NP'
'995'
'turn_'
'sing^_'
'au'
'MESSAGE_'
'encoded\u^_'
'ati'
'wx'
'lu'
'ALIGN\u^_'
'submit\u^_'
'NAMES_'
'authenticate_'
'381'
'so'
'student^_'
'TAG\u^_'
'QH^_'
'ws\u^_'
'ings^_'
'rsp_'
'yp'
')."_'
'338'
'$\\^_'
'Bra'
'∅r'
'providers^_'
'167'
'710'
'ER'
'storage'
'Pri'
'nde'
'XX^_'
'STD'
'367'
'(('
'velocity^_'
'subdir_'
'ore'
'00000'
'weights\u^_'
'proc'
'hp_'
'Inventory^_'
'thresh_'
'Stop_'
':`.^_'
'RG'
'rev\u^_'
'verb_'
'=%(^_'
').'_'
'Hu'
'peer\u^_'
'filesystem^_'
'tate_'
'slo'
'pac'
'880'
'conc'
'remaining^_'
'EA^_'
'474'
'sg\u^_'
'oli'
'sample'
'gp_'
'previous_'
'tbl_'
'hex'
'okay^_'
'considered^_'
'VM'
'legend^_'
'DO^_'
'ify_'
'011'
'brush_'
'904'
'plo'
'lw'
'mobile^_'
'428'
'tele'
'engine\u^_'
'041'
'FLAGS^_'
'properly^_'
'Button\u^_'
'EN'
'auto'
'strip^_'
'274'
'Su'
'Replace^_'
'mirror^_'
'gain_'
'IE^_'
'Callable_'
'600^_'
'ace_'
'predicate_'
'prec'
'i2_'
'lot^_'
'LETTER^_'
'Par'
'prod^_'
'516'
'lum'
'Builder^_'
'Phase^_'
'sound_'
'la'
'specifying^_'
'applications^_'
'Safe^_'
'446'
'ic\u^_'
'Append^_'
'558'
'562'
'i18n_'
'sy'
'EE^_'
'']'_'
'gr\u^_'
'\\)'
'topology_'
'975'
'Transport^_'
'GROUP\u^_'
'382'
'percentage^_'
'ky'
'mkdtemp_'
'fft_'
'232'
'media'
'328'
'lan'
'Logging^_'
'mx'
'Lenum_'
'cum'
'company_'
'Auth_'
'middle^_'
'g1_'
'150^_'
'MIME^_'
'1.2_'
'OF\u^_'
'325'
'0.17'
'="/^_'
'routes^_'
'hh'
'322'
'0xc'
'387'
'bm'
'WH'
'integration^_'
'dst'
'ot'
'263'
'nc'
'Valid_'
'493'
'Unicode_'
'Bucket^_'
'rl'
'Username^_'
'wp'
'492'
'km^_'
'++'
'Structure^_'
'Points^_'
'ost'
'449'
'784'
'rs\u^_'
'leaf_'
'515'
'pid\u^_'
'products_'
'Sum^_'
'dg'
'Cd'
'KHTML^_'
'nsi'
'303'
'hashes_'
'com'
'\'
']]'
'sco'
'207'
'ei'
'PU'
'Include^_'
'2p'
'Po'
'patches_'
'0.08'
'she'
'population_'
'aba'
'Product_'
'"|"_'
'swa'
'samples\u^_'
'436'
'Os'
'Fetch^_'
'qt_'
'ymin_'
'neutron^_'
'ata'
'OPTIONS^_'
'geom^_'
'projection^_'
'Transition_'
'LE_'
'eng'
'392'
'7\u^_'
'embedding\u^_'
'ore^_'
'ro_'
'Secondary^_'
'644'
'630'
'meter^_'
'jd'
'Region_'
'OBJ'
'509^_'
'ey'
'Extended^_'
'ent\u^_'
'iss'
'Html^_'
'BI'
'anything^_'
'Tools_'
'857'
'Av'
'newline_'
'rest'
'mf_'
'464'
'sheet^_'
'JI'
'estimator_'
'Def^_'
'n∅'
'553'
'ss\u^_'
'LS^_'
'd2'
'412'
'nin'
'Live^_'
'LDAP^_'
'177'
'Mp'
'546'
'off\u^_'
']}'
'piece_'
'://%^_'
'860'
'ang'
'REC'
'linked^_'
'km'
'GB'
'INT_'
'consts_'
'topics^_'
'Room^_'
'applicable^_'
'383'
'pos1_'
'Read_'
'heading_'
'Methods^_'
'lv'
'adi'
'727'
'\\"\\^_'
'speed\u^_'
'183'
'tor'
'strict^_'
'Rad'
'184'
'Conf_'
'theme\u^_'
'tokenizer_'
'Ip'
'ana^_'
'Geo'
'community^_'
'304'
');\\^_'
'vg'
'211'
'MAC^_'
'specifies^_'
'ROOT^_'
'Geometry^_'
'hit'
'uns'
'Mar'
'bv'
'LM'
'led^_'
'theta\u^_'
'lle'
'PATH\u^_'
'stuff^_'
'529'
'country\u^_'
'320'
'pf_'
'instrument^_'
'dle'
'597'
'Worker^_'
'keep_'
'fav'
'tokenize_'
'specification^_'
'ph_'
'initialized^_'
'oo^_'
'che^_'
'ION_'
'481'
'dispatcher_'
'addon_'
'Up'
'SS'
'631'
'Uni'
'MAX_'
'El^_'
'Check'
'fat'
'259'
'390'
'ha'
'057'
'417'
'four^_'
'clean'
'shi'
'765'
'ins^_'
'Special^_'
'detail\u^_'
'BIN'
'VN'
'players^_'
'separate^_'
'inc'
'426'
'Europe^_'
'ravel_'
'521'
'fi_'
'Sol'
'Loop^_'
'Mon'
'let'
'lab'
'Mail^_'
'loc'
'sub'
'030'
'0.20'
'Rec'
'462'
'ox^_'
'av_'
'Vertical^_'
'418'
'dma'
'010^_'
'0xE71C_'
'Begin^_'
'basis^_'
'Ensure^_'
'med'
'()=^_'
'und'
'testcase_'
'pixel_'
'encoder\u^_'
'473'
'lab_'
'degree^_'
'528'
'depends^_'
'attrs^_'
'modifiers_'
'BM'
'165'
'energy\u^_'
'Conf^_'
'unittest^_'
'Old^_'
'ime'
'378'
'va_'
'groups\u^_'
'012'
'Move_'
'REFERENCE\u^_'
'0xD'
'matching\u^_'
'∅∅∅'_'
'941'
'940'
'constraints^_'
'builtins_'
'minimum_'
'NC^_'
'lhs_'
'uniform^_'
'xen'
'Mat'
'zation^_'
'quota^_'
'prim'
'od^_'
'boot'
'804'
'photo_'
'mas'
'ind\u^_'
'cz'
'Timer^_'
'SI^_'
'stage\u^_'
'800^_'
'un_'
'600'
'Cla'
'projection_'
'pyo'
'expand^_'
'other'
'->'
'Iterator_'
'Pickle_'
'embed^_'
'Sparse^_'
'Ac'
'FS'
'copies^_'
'NE^_'
'iri'
'Adapter_'
'c2'
'tkinter_'
'batches_'
'ticket_'
'obs^_'
'208'
'";"_'
'616'
'performed^_'
'486'
'cte'
'12345^_'
'pet'
'555'
'XS'
'pytz_'
'origin\u^_'
'393'
'DROP^_'
'Write_'
'paper^_'
'libraries_'
'324'
'namespace\u_'
'269'
's3'
'348'
'Pixel^_'
'xt^_'
'ep\u^_'
'TEST_'
'GD'
'605'
'.0'
'esi'
'0x4_'
'That^_'
'ana'
')?'
'gin'
'cx'
'us'
'prompt^_'
'Renderer_'
'LD^_'
'sky'
'TEST'
'guess^_'
'l∅'
'randn_'
'812'
'LEA'
'interval\u^_'
'4._'
'234'
'seqs_'
'Marker^_'
'Of_'
'WR'
'Min'
'solid^_'
'lexer_'
'tun'
'mo\u^_'
'Registration^_'
'yy_'
'604'
'615'
'angles_'
'LA^_'
'sentences_'
'libc'
'extras_'
'241'
'ql^_'
'ordered^_'
'multiplier_'
'430'
'break'
'ascii_'
'controller\u^_'
'333'
'curr'
'ami'
'po_'
'oti'
'triggered_'
'providers_'
'follow^_'
'ndi'
'Complete^_'
'migrate\u^_'
'fl_'
'842'
'Work'
'alert\u^_'
'compat\u^_'
'binascii_'
'CACHE\u^_'
'nw'
'225'
'xco'
'client'
'pw_'
'two'
'rar'
'header'
'PE^_'
'0001'
'tid^_'
'Guess_'
'placeholder^_'
'central^_'
'shutdown^_'
'gla'
'ay'
'ads^_'
'instr_'
'Ret'
'780'
'tuples_'
'2005^_'
'0.16'
'%'_'
'mobj_'
'RO^_'
'guess\u^_'
'Fu'
'8.0_'
')(^_'
'';^_'
'gan'
'099'
'240_'
'NV^_'
'705'
'adds^_'
'The'
'prefs_'
'Prop^_'
'spectrum^_'
'POS_'
'Threshold^_'
'Graphics^_'
'create'
'401'
'exec\u_'
'cli'
'translate\u^_'
'526'
'java\u^_'
'ura'
'465'
'phase\u^_'
'AAA'
'dropout_'
'ico'
'verts_'
'regions^_'
'411'
'999^_'
'Disable^_'
'isn^_'
'530'
'652'
'existing_'
'617'
'gro'
'369'
'mem'
'admin'
'references_'
'mapped^_'
'Creation^_'
'181'
'capture^_'
'parsers_'
'476'
''∅∅∅^_'
'334'
'910'
'404'
'double\u^_'
'522'
'Photo^_'
'protocol\u^_'
'men^_'
'483'
'thumb^_'
'major\u^_'
'rt\u^_'
'442'
'compiler^_'
'cleanup\u^_'
'Fit^_'
'column'
'channel'
'abi'
'Gl'
'eu^_'
'pay'
'dur'
'Hi^_'
'populate\u^_'
'exchange_'
'Stor'
'live\u^_'
'cleanup^_'
'342'
'atoms^_'
'Too^_'
'fen'
'Regex^_'
'jw'
'Ps^_'
'108'
'rot_'
'Ms^_'
'0.18'
'relpath_'
'HA^_'
'578'
'Colour_'
'consumer_'
'added\u^_'
'Point'
'ola'
'Imp'
'Text'
'Read'
'An'
'nickname_'
'annotations^_'
'dw'
'901'
'sch'
'IA^_'
'261'
'FR^_'
'513'
'static'
'Ar^_'
'cmdline_'
'St^_'
'limits^_'
'nan^_'
'SO^_'
'"<'
'invoice^_'
'245'
'Browser^_'
'Multicast^_'
'823'
'Pc'
'0.21'
'migration^_'
'const\u^_'
'pause_'
'observer_'
'FILES_'
'Bit'
'eno'
'ans'
'TOKEN_'
'nu^_'
'Cost^_'
'Aa'
'Exp^_'
'hot'
'599'
''['_'
'sign\u^_'
'minute^_'
'see'
'5317^_'
'Dictionary_'
'ac'
'removed_'
'Paths_'
'problem\u^_'
'SEC'
'ldap^_'
'aux_'
'309'
'neg\u^_'
'zone'
'scene\u^_'
'snap\u^_'
'dark^_'
'depth\u^_'
'pin\u^_'
'vlan_'
'').^_'
'HEADER_'
'())'
'Sh'
'Const_'
'Se'
'routing^_'
'genes_'
'VR'
'dialect_'
'637'
'fw_'
'boundary_'
'mid^_'
'ra'
'mer^_'
'wy'
'456'
'monkeypatch_'
'826'
'Edge_'
'launch\u^_'
'ton'
'Actions_'
'pk'
'619'
'hardware^_'
'nh'
'uti'
'PV'
'sqrt^_'
'roll_'
'QE'
'lig'
'WARRANTIES^_'
'`"_'
'SECRET\u^_'
'pra'
'809'
'cam'
'fast'
'hs^_'
'les_'
'pan'
'grpc\u^_'
'CAN'
'toc'
'gem'
'518'
'ase^_'
'Qui'
'242'
'Con'
'Loader^_'
'Tkinter_'
'sampling^_'
'ass_'
'para'
'cri'
'172^_'
'rect^_'
'475'
'ree_'
'des_'
'detect^_'
'JE'
'udp^_'
'Si^_'
'prepare^_'
'Cra'
'lip'
'179'
')}^_'
'decorator^_'
'returns_'
'nre'
'Manage^_'
'John^_'
'derived^_'
'466'
'ML'
'OS'
'264'
'importlib_'
'Pt'
'163'
'sv^_'
'high'
'runner^_'
'Pointer_'
'conn'
'xl'
'indicator_'
'todo^_'
'rat'
'UE'
'cal\u^_'
'wc'
'2s'
'EVENT^_'
'collect_'
'565'
'302'
'incoming^_'
'mask'
'6.0_'
'intervals_'
'randrange_'
'cirq_'
'fig^_'
'052'
'=[^_'
'621'
'unless^_'
'140_'
'poll^_'
'540'
'station\u^_'
'989'
'983'
'388'
'wave^_'
'778'
'125_'
'l2'
'uf^_'
'acl^_'
'Atom^_'
'593'
'890'
'KEY'
'Building^_'
'707'
'Ot'
'298'
'vec'
'company\u^_'
'091'
'coverage_'
'swift^_'
'Mor'
'ise^_'
'0.22'
'away^_'
'923'
'th\u^_'
'range'
'AGG'
'failures_'
'video'
'ttl_'
'listen^_'
'427'
'Sql^_'
'lit'
'GR'
'pub\u^_'
'Statistics^_'
'imported^_'
'questions^_'
'array'
'RESPONSE\u^_'
'Show_'
'627'
'variables\u^_'
'SK'
'913'
'comparison^_'
'are'
'answers_'
'float'
'unc_'
'552'
'Ids^_'
'Endpoint^_'
'Pd'
'441'
'elapsed_'
'texts_'
'sound^_'
'yi'
'reflection_'
'Finished^_'
'ped^_'
'enti'
'bam^_'
'xr'
'vh'
'spi'
'544'
'describe\u^_'
'636'
'cord'
'Nt'
'MU'
'063'
'LEFT^_'
'II'
'certain^_'
'Sv'
'wikipedia^_'
'ape'
'Rep'
'spaces_'
'PRESS^_'
'918'
'559'
'OR'
'INVALID\u^_'
'584'
'240'
'BAD\u^_'
'00041836^_'
'installation^_'
'Same^_'
'readonly_'
'circle_'
'mag_'
'h1_'
'226'
'056'
'data2_'
'bac'
'Or'
'RU'
'Issue^_'
'Commit^_'
'gli'
'∅o^_'
'NONE^_'
'Contains^_'
'reader^_'
'libs^_'
'tex'
'vel'
'ase_'
'eva'
'Pro'
'458'
'178'
'ant_'
'nu_'
'epi'
'Character^_'
'pub_'
'058'
'cookie\u^_'
'2c'
'tolerance_'
'scrapy_'
'mom'
'KO'
'0x20_'
'subset^_'
'sis^_'
'leave^_'
'496'
'567'
'Fa'
'hit\u^_'
'O'
'cj'
'Ag'
'313'
'Reply^_'
'Counter^_'
'Axis_'
'resulting^_'
'uw'
'219'
'Surface^_'
'='%^_'
'042'
'Gradient^_'
'102^_'
'yg'
'tar_'
'mes_'
'STA'
'sex'
'ast'
'rollback_'
'BR'
'OI'
'632'
'rig'
'han'
'b2'
'917'
'wv'
'responses^_'
'575'
'help'
'los^_'
'Ca'
'227'
'ein'
'dor'
'mono'
'transition_'
''\u\u\uCARET\u\u\u$'
'Sha'
'Rp'
'p3_'
'vec\u^_'
'16.'
'507'
'sol_'
'fileobj_'
'L'
'TRUE^_'
'R'
'uit'
'httplib_'
'wc_'
'741'
'Updates^_'
'Xm'
'remaining_'
'cen'
'JU'
'413'
'LINE\u^_'
'overlap_'
'uri\u^_'
'912'
'520'
'252'
'mpi'
'eat'
'nest_'
'∅∅∅∅∅'_'
'Canvas_'
'signature\u^_'
'672'
'pace^_'
'anti'
'Mi^_'
'Instances^_'
'Curve^_'
'splits_'
'phrase_'
'Callbacks_'
'xm'
'ide'
'902'
'dic^_'
')]'
'most\u^_'
'START^_'
'coroutine_'
'Direction_'
'who'
'lam'
'Updated^_'
'447'
'bridge_'
'Append_'
'Dev^_'
'''^_'
'ses^_'
'lr^_'
'987'
'si'
'May^_'
'content'
'rtol_'
'bins^_'
'Mo^_'
'retrieve\u^_'
'swi'
'Scheduler^_'
'exchange^_'
'ice^_'
'camera\u^_'
'seen^_'
'pitch_'
'iff^_'
'segments^_'
'idx'
'Details_'
'Vis'
'337'
'243'
'az'
'getf'
''∅^_'
'slave^_'
'p2'
'mysql\u^_'
'cached_'
'shows^_'
'resp^_'
'Ch'
'New'
'757'
'093'
'bet'
'hal'
'fix_'
'sizes^_'
'avoid^_'
'po'
'ouch^_'
'words\u^_'
'WE'
'Speed_'
'603'
'463'
'344'
'ide^_'
'pis'
'terminal_'
'multiple_'
'OG'
'clo'
'calculation^_'
'Socket_'
'mp'
'aggregate_'
'clause_'
'485'
'678'
'CR^_'
'house^_'
'to'
'smart'
'hb'
'factors_'
'ara'
'cert'
'ming^_'
'desired\u^_'
'COUNT^_'
'bank\u^_'
'action'
'952'
'rub'
'TAG_'
'201^_'
'NOT'
'configuration\u^_'
'FR'
'te'
'collections^_'
'neg_'
'ira'
'```^_'
'losses_'
'ari'
'Represents^_'
'right'
'nj'
'0x1'
'listing^_'
'[/^_'
'098'
'oauth\u^_'
'%}'
'Cross^_'
'452'
'Camera^_'
'Pen'
'ha_'
'Final^_'
'714'
'dbname_'
'.*)'
'some\u^_'
'438'
'702'
'623'
'RE\u^_'
'master'
'Angle_'
'face'
'canvas^_'
'WO'
'MON'
'218'
'cog'
'rti'
'l2\u^_'
'cv\u^_'
'819'
'localtime_'
'pressure^_'
'mov'
'qty_'
'Sch'
'DOMAIN_'
'588'
'899'
'TA^_'
'Board_'
'SET_'
'%}^_'
'hr'
'665'
'ZE'
'Ao^_'
't1'
'GPL^_'
'∅∅∅∅∅'
'HT'
'876'
'pkl^_'
'rr'
'nearest^_'
'robot^_'
'566'
'Contains_'
'tac'
'764'
'beta\u^_'
'937'
'311'
'AUTH^_'
'SPEC'
'tracker^_'
'EST'
'audio'
'xpr'
'459'
'plots^_'
':&#^_'
'deal'
'TAG'
'IGNORECASE_'
'ala'
'security_'
'695'
'Web'
'0.19'
'oct'
'fraction_'
'RV'
'770'
'tis'
'Router^_'
'379'
'INFO\u^_'
'MIB_'
'FILE'
'GS^_'
'stamp_'
'Od'
'team'
'tracking^_'
'bottom\u^_'
'produced^_'
'ute'
'sw_'
'swap^_'
'returns\u^_'
'dll^_'
'render'
'cond^_'
'mu\u^_'
'ual^_'
'fits_'
'domains^_'
'mt^_'
'Port'
'with'
'deque_'
'Reserved^_'
'824'
'swigregister_'
'WIN'
'prob\u^_'
'replication^_'
'pur'
'scan'
'687'
'ow^_'
'tee'
'ator_'
'497'
'pieces_'
'ity\u^_'
'INS'
'Choice_'
'space'
'dry\u^_'
'()``^_'
'lo'
'copyright_'
'History_'
'installed_'
'seg\u^_'
'nfo^_'
'sq'
'good_'
'encryption^_'
'Dense_'
'ade'
'624'
'587'
'397'
'strand_'
'so_'
'use'
'needs\u^_'
'IO'
'BT'
'549'
'inv^_'
'strict_'
'nets'
'921'
'ied^_'
'Namespace^_'
'opts^_'
'BR^_'
'848'
'2019^_'
'blo'
'criteria_'
'k1_'
'outf'
'EG'
'482'
'755'
'Ga'
'ber^_'
'Password_'
'CV'
'now'
'normalize^_'
'943'
'ftp^_'
'here_'
'plt^_'
'0002'
'2.0'
'662'
'txt\u^_'
'Sen'
'Possible^_'
'tw'
'Af'
'quiet^_'
'355'
'353'
'279'
'900'
'Contents_'
'ia'
'993'
'lim'
'filenames^_'
'2007^_'
'listen_'
'Val^_'
'INE'
'Origin^_'
'519'
'order'
'ips^_'
'relu_'
'degrees_'
'725'
'stock_'
'ability^_'
'scope\u^_'
'TP^_'
'cond'
'629'
'nor'
'Ji'
'checkpoint^_'
'subscribe_'
'487'
'SQL_'
'Guangdong^_'
'Duplicate^_'
'MI^_'
'reports_'
'cn_'
'ian'
'theta'
'gui'
'rsplit_'
'488'
'bat'
'33.'
'bli'
'lh'
'Pal'
'detect\u^_'
'formatted\u^_'
'Note_'
'DEP'
'omp'
'Nat'
'GAT'
'Gu'
'ypes_'
'in'
'object'
'448'
'zeros\u^_'
'pym'
'ask'
'SM^_'
'Microsoft^_'
'686'
'hol'
'810'
'outer^_'
'fun'
'rpm^_'
'partner\u^_'
'median^_'
'Bg^_'
'Ignore^_'
'pending_'
'mul_'
'fixtures^_'
'Kl'
'ers'
'ok\u^_'
'fanart_'
'676'
'xg'
'merged^_'
'Train^_'
'trig'
'flo'
'tr\u^_'
'AT'
'polygon_'
'PIL_'
'rather^_'
'listed^_'
'COUNT_'
'og_'
'manage'
'601'
'Time'
'flavor\u^_'
'017'
'472'
'703'
'parms_'
'll\u^_'
'represent^_'
'detection^_'
'mad'
'Colors_'
'DEVICE\u^_'
'policies_'
'Repository_'
'504'
'TX^_'
'657'
'sleep\u^_'
'null\u^_'
'655'
'Reads^_'
'Sto'
'/>'_'
'systems^_'
'728'
'ens'
'kr'
'fy^_'
'alarm\u^_'
'FA^_'
'mus'
'ld_'
'dra'
'512'
'tmpl_'
'291'
'Expanded^_'
'Main_'
'001'
'latin^_'
'Alignment_'
'CL^_'
'930'
'021'
'PLAY'
'537^_'
'Fail^_'
'Period^_'
'manually^_'
'ES\u^_'
'buckets_'
'tit'
'318'
'setitem\u\u_'
'999_'
'trap'
'585'
'NU'
'0.001'
'private_'
'0.12'
'resp'
'Ob'
'905'
'653'
'\\]'
'ras'
'floating\u^_'
'1000000_'
'Registry^_'
'candidate^_'
'runtime\u^_'
'Kernel^_'
'tensors_'
'sb_'
'zn'
'250'
'Frequency^_'
'nar'
'440'
'recon'
'yd'
'metrics\u^_'
'556'
'=<^_'
'gpu\u^_'
'ij'
'Adding^_'
'isl'
''>'
'Ftdc^_'
''%'_'
'gma'
'stopped^_'
'FAILED^_'
'b64encode_'
'XD'
'746'
'mir'
'live'
'vel^_'
'Io^_'
'ose'
'Gl^_'
'Head^_'
'over_'
'Checker\u^_'
'instructions_'
'exactly^_'
'EXP'
'van'
'%%'
'verb^_'
'scale'
'Workflow^_'
'merged\u^_'
'spe'
'ns3^_'
'508'
'811'
'marker\u^_'
'045'
'File'
'Co'
'495'
'train'
'Res'
'nod'
'2b'
'228'
'pitch^_'
'peak\u^_'
'lambda\u^_'
'plant'
'subscription_'
'799'
'Customer^_'
'candidate\u^_'
'244'
'Staff^_'
'dependency_'
'do'
'Im'
'994'
'ure_'
'MF'
'zt'
'ime^_'
'topology^_'
'de'
'INDEX^_'
'Chain^_'
'Repo^_'
'On_'
'988'
').'
'830'
'expr\u^_'
'479'
'Phy^_'
'Diff^_'
'wn'
'Family^_'
'Ru'
'747'
'626'
'jpeg^_'
'CUR'
'COLOR_'
'stra'
'wm'
'START_'
'value'
'csv'
'capabilities_'
'MULTI'
'h2_'
'KE^_'
'(`^_'
'[{^_'
'302_'
'tif^_'
'Lv^_'
'djangoproject^_'
'XP'
'658'
'aus'
'several^_'
'kal'
'collect^_'
'Ok_'
'KN'
'Tex^_'
'four'
'Subs'
')/^_'
'keymap\u^_'
'Dis'
'622'
'ht^_'
'1j_'
'texture^_'
'290'
'756'
'INPUT\u^_'
'trees_'
'TL'
'753'
'availability^_'
'Ant'
'VERSION\u^_'
'909'
'v3_'
'foo'
'ig^_'
'645'
'BEGIN^_'
'tax^_'
'reload^_'
'mkdir^_'
'since_'
'v2\u^_'
'Bre'
'048'
'782'
'weather^_'
'license\u\u_'
'Tr'
'1.8'
'Commands_'
'ary_'
'742'
'unc'
'Me^_'
'`\\^_'
'ain'
'getter_'
'716'
'308'
'serializer\u^_'
'237'
'715'
'ler'
'cess'
'583'
'425'
'Article^_'
'548'
'histogram_'
'over\u^_'
'trial_'
'684'
'ond'
'541'
'ok'
'bst'
'broker_'
'Addr^_'
'Alert^_'
'templates\u^_'
'RED'
'736'
'openstack_'
'oc'
'PM^_'
'issubclass_'
'Bridge^_'
'student_'
'561'
'rename\u^_'
'564'
'ctl^_'
'ph^_'
'sle'
'market_'
'osid^_'
'Interfaces^_'
'0x9000'
'Ver'
'PR^_'
'por^_'
'Desc^_'
'csr^_'
'305'
'568'
'Selector_'
'METHOD^_'
'slices_'
'toggle\u^_'
'UNI'
'odi'
'del\u\u_'
'apt^_'
'745'
'PL^_'
'Experiment^_'
'(['
'Submit^_'
'unre'
'233'
'attention\u^_'
'alle'
'Course^_'
'Music^_'
'870'
'670'
'poll\u^_'
'ADD^_'
'KM'
'sha256_'
'email'
'shown^_'
'fo'
'607'
'pdf\u^_'
'prime_'
'}</^_'
'vmax_'
'Branch^_'
'Delete_'
'Tele'
'exc^_'
'664'
'.''
'Zh'
'ence^_'
'Python_'
'2e'
'671'
'919'
'instance'
'failure\u^_'
'ATT'
'vet'
'\u\u\uCARET\u\u\u\u'
'status'
'646'
'rx\u^_'
'pt\u^_'
'ham'
'dip'
'0.30'
'eq'
'538'
'070'
'AG^_'
'scipy^_'
'Stash_'
'tb^_'
'385'
'=('
'invoke_'
'uploader^_'
'882'
'completion^_'
'DV'
'dictionaries^_'
'489'
'topo'
'Stat^_'
'creation\u^_'
'Globals_'
'Ok^_'
'897'
'Ai'
'105_'
'246'
'Weight^_'
'EF^_'
'0.50'
'EXISTS^_'
'popen_'
'tel'
'Sr'
'Pair^_'
'Water^_'
'burn'
'821'
'889'
'yt'
'ndo'
'dex_'
'readable^_'
'477'
'kin'
'647'
'lem'
'visited_'
'rot'
'address'
'698'
'La'
'Here^_'
'reached^_'
'su^_'
'protobuf^_'
'contextmanager_'
'light\u^_'
'met'
'imm'
'curve\u^_'
'design^_'
'FB^_'
'docstring^_'
''}'
'rm\u^_'
'times'
'virtual'
'rk^_'
'984'
'022'
'914'
'package'
'0.02_'
'sa'
'cad'
'indexes^_'
'mot'
'340'
'pem^_'
'PB^_'
'languages^_'
'sj'
'Np'
'ctrl^_'
'evi'
'grammar_'
'Scalar^_'
'573'
'gram^_'
'Blue^_'
'seed\u^_'
'serialize\u^_'
'tol'
'Ve'
'pon'
'yn'
'KS'
'kk'
'nf_'
'debug'
'daily^_'
'urljoin_'
'Letter^_'
'Elements_'
'OW'
'775'
'kf'
'ent'
'tl'
'rap'
'Tm'
'Material^_'
'assign'
'ona'
'Requests^_'
'110^_'
'Ii^_'
'nba'
'Palette_'
'pg\u^_'
'Z\u^_'
'ttk_'
'612'
'aliases^_'
'COM'
'nch'
'394'
'926'
'pend'
'dec'
'Side^_'
'rec'
'proper^_'
'selenium_'
'minor_'
'optimize_'
'792'
'IG^_'
'Clean^_'
'potential^_'
'dep^_'
'finder_'
'Factor_'
'gi^_'
'animal^_'
'Q\u^_'
')."""_'
'a0_'
'Math^_'
'638'
'726'
'datastore_'
'Ep'
'542'
'separator^_'
'AAAA'
'um\u^_'
'591'
'Err^_'
'877'
'creator^_'
'sec\u^_'
'712'
'Redis^_'
'gre'
'Che'
'806'
'explicit^_'
'yf'
'Draw_'
'PG'
'uto'
'appear^_'
'346'
'572'
'tell_'
'CHA'
'Hook^_'
'744'
'016'
'super\u^_'
'c1'
'Board^_'
'734'
'push'
'Bundle^_'
'classname_'
'Constraint^_'
'hook\u^_'
'xu'
'repl'
'mys'
'controls_'
'ticker_'
'925'
'dec\u^_'
'reflect'
'Sla'
'classifier^_'
'erf'
'tle'
'5._'
'cookie'
'tst'
'072'
'∅a^_'
'sc\u^_'
'place\u^_'
'usage\u^_'
'authors^_'
'fco'
'warnings^_'
'kv'
'DL^_'
'Sys^_'
'ski'
'055'
'Cursor^_'
'721'
'Stock^_'
'entire^_'
'pause^_'
'847'
'doctest^_'
'pyn'
'INT'
'partitions_'
'981'
'CODE\u^_'
'inp'
'PRO'
'Kr'
'pw^_'
'HER'
'requested\u^_'
'cab'
'KIND^_'
'ther'
'prev'
'development^_'
'049'
'Sel^_'
','^_'
'pop'
'062'
'TR^_'
'hand'
'pal'
'Original^_'
'wt^_'
'Need^_'
'pool'
'delta'
'STREAM_'
'orig'
'781'
'orders^_'
'rdf^_'
'resize\u^_'
'gzip^_'
'pot'
'hide\u^_'
'039'
'GSM^_'
'pr\u^_'
'wall^_'
'Permission_'
'snmp^_'
'Deleter\u\u^_'
'738'
'builds^_'
'q1_'
'cross'
'409'
'ings_'
'mass\u^_'
'lj'
'ps\u^_'
'724'
'498'
'081'
'abstract_'
'Env^_'
'345'
'combinations_'
'ace'
'eps^_'
'ear'
'subplots_'
'064'
'semi'
'ji^_'
'normalized\u^_'
'clone\u^_'
'UID^_'
''\u\u\uCARET\u\u\u'
'10._'
'aco'
'0.002'
'PAR'
'0xff_'
'years_'
'0.27'
'ler^_'
'gru'
'SOL'
'undefined^_'
'Shi'
'transfer_'
'OA'
'ACCESS\u^_'
'grad^_'
'initialization^_'
'GUI_'
'rg^_'
'})"_'
'r1'
'834'
'019'
'321'
'Complex^_'
'RH^_'
'mass'
'movie\u^_'
'Enable_'
'off'
'Ser'
'webdriver_'
'ker^_'
'371'
'padx_'
'corpus^_'
'Images^_'
'el\u^_'
'198'
'FIELD\u^_'
'SIM'
'818'
'cs\u^_'
'Skipping^_'
'Already^_'
'fixed_'
'733'
'tracks^_'
'REGEX_'
'rates_'
'usa'
'xaxis_'
'pyw'
'543'
'gu'
'160^_'
'customer\u^_'
'hu'
'Language_'
'Pen_'
'692'
'zr'
'0x21'
'NUM^_'
'vent'
'score'
'789'
'crop\u^_'
'Delay^_'
'qf'
'979'
'thread'
'USB^_'
'>[\u\u\uCARET\u\u\u'
'254'
'co'
'extend^_'
'dyn'
'Sign^_'
'CAC'
'locked^_'
'265'
'891'
'205'
'hes'
'Ut'
'DH'
'tn_'
'usually^_'
'hel'
'"},^_'
'define_'
'tch^_'
'uploaded^_'
'presentation^_'
'Bs'
'634'
'er'
'hp^_'
'651'
'GPS^_'
'book'
'lla'
'inst'
'NULL_'
'close'
'\u\u\u\u\u\u\u\u\u\'
'nav'
'802'
'316'
'Iterable_'
'wl'
'nst'
'2a'
'"?"_'
'maybe\u^_'
'969'
'formula^_'
'609'
'Dir'
'data1_'
'gk'
'FT'
'increment_'
'∅i'
'linestyle_'
'sup'
'idxs_'
'697'
'bool\u^_'
'logged\u^_'
'614'
'NUMBER^_'
'813'
'games^_'
'construct\u^_'
'assets_'
'635'
'las^_'
'hk'
'674'
'aj'
'ype'
'copyright\u\u_'
'had^_'
'HR'
'031'
'plots_'
'766'
'utility^_'
'predictions^_'
'rsi'
'916'
'supports\u^_'
'|\\'
'regexp_'
'677'
'Ad'
'percentage_'
'saving^_'
'activation\u^_'
'0.26'
'sho'
'checked_'
'Reading^_'
'CCA'
'643'
'Mal'
'760'
'0x80_'
'fire^_'
'whitespace^_'
'protein^_'
'986'
'ho^_'
'rsp'
'JO'
'613'
'cia'
'drive_'
'cro'
'OO^_'
'Cha'
'641'
'053'
'catalog\u^_'
'054'
'347'
'∅a'
'rl^_'
'combined^_'
'lbl^_'
'mol^_'
'787'
'optional\u^_'
'HM'
'ben'
'915'
'Ann'
'INC'
'vstack_'
'ie_'
'execution_'
'947'
'sit'
'vnd^_'
'648'
'Angle^_'
'bee'
'862'
'704'
'grpc^_'
'kg'
'Actions^_'
'4096_'
'ho'
'611'
'Distance_'
'edit'
'restore_'
'appengine_'
'native_'
'READ'
'New_'
'downloaded^_'
'backref_'
'mun'
'688'
'subc'
'webob_'
'LV'
'828'
'569'
'							_'
'527'
'cone'
'ql'
'voice^_'
'mg^_'
'oma'
'desktop^_'
'flip_'
']*)'
'S'
'cols^_'
'preserve\u^_'
'Rh'
'299'
'LAB'
'Developers^_'
'corr_'
'tem_'
''∅∅∅∅∅^_'
'got_'
'865'
'relationship^_'
'ask_'
'Init_'
'SN^_'
'tions_'
']('
'managed^_'
'lt\u\u^_'
'best'
'global'
'wave_'
'count'
'kn'
'384'
'TOOL'
'351'
'nte^_'
'894'
'ib^_'
'Segment_'
'mv^_'
'040'
'/*.^_'
'height\u^_'
'configparser_'
'newaxis_'
'Oo'
'886'
'CODE^_'
'subtype_'
'Label'
'goal^_'
'70.'
'sem'
'thumb_'
'containers^_'
'660'
'2.4'
'GE^_'
'References^_'
'708'
'joined^_'
'vtk_'
'843'
'DOTALL_'
'di_'
'Converts^_'
'Pan'
'125^_'
'nti'
'ct\u^_'
'gt\u\u\u^_'
'bulk\u^_'
'Email_'
'403'
'Temp_'
'3.2'
'Place^_'
'OUT'
'FORMAT\u^_'
'menu'
'532'
'cid'
'991'
'Physical^_'
'0.98'
'null'
'guide^_'
'asynchronous^_'
'ik^_'
'Converter_'
'(*^_'
'fastbinary_'
'ah^_'
'EM^_'
'confirm_'
'zer_'
'563'
'GF'
'bility^_'
'hip'
'911'
'workers^_'
'zz^_'
'counters_'
'perform\u^_'
'sor'
'bz^_'
'jam'
'endif^_'
'rod'
'ca'
'chi^_'
'filepath^_'
'moving^_'
'478'
'ments_'
'Configure^_'
'omega_'
'heads_'
'law^_'
'unused\u^_'
'PID^_'
'vi^_'
'beginning^_'
'LF'
'Ang'
'Polygon^_'
'pull\u^_'
'Scope^_'
'Dan'
'866'
'BD^_'
'aggregate^_'
'heat^_'
'Regular^_'
'Ts'
'eta^_'
'934'
'Docker^_'
'SET'
'Am'
'lee'
'ato'
'Internet^_'
'723'
'patterns^_'
'St'
'Proto^_'
'issue'
'BF^_'
'REP'
'633'
'gon'
'feedback_'
'cinder_'
'718'
'dam'
'816'
'updating^_'
'Checker_'
'skipping^_'
'zl'
'epo'
'flex'
'Common_'
'706'
'xr_'
'377'
'MIN'
'V'
'Tile^_'
'boto_'
'ai_'
'setattr\u\u_'
'annotation\u^_'
'zz'
'routing\u^_'
'REG\u^_'
'replicate'
'coll_'
'586'
'Ii'
'graphic^_'
'AUTO'
'{:.^_'
'JS'
'hist'
'ku^_'
'hora'
'ap\u^_'
'nr\u^_'
'ldap\u^_'
'082'
'sno'
'867'
'}:'
'Run'
'/\u^_'
'Normal_'
'genome\u^_'
'better^_'
'gy'
'ibi'
'Cal'
'Requires^_'
'/{}/^_'
'histogram^_'
'cause^_'
'594'
'Diff_'
'598'
'ALT'
'gri'
'Ins'
'entropy_'
'GRA'
'Dt'
'vote^_'
'cin'
'ray^_'
'bh'
'737'
'yield^_'
'utt'
'Integration^_'
'gcc^_'
'red\u^_'
'OVER'
'Fail_'
'dates^_'
'MG'
'Mesh_'
'OF'
'receive_'
'varname_'
'ics^_'
'remaining\u^_'
'lbl_'
'tick^_'
'://'
'cma'
'VERTICAL_'
'}:{^_'
'Rect^_'
'992'
'2020^_'
'814'
'595'
'let_'
'stdout\u^_'
'ostream^_'
'MODE^_'
'229'
'contained^_'
'924'
'sre'
'nad'
'249'
'DEST'
'ATC'
'qe'
'wh'
'auto_'
'ming'
'Inter'
'WF'
'perm'
'gap_'
'642'
'wrong\u^_'
'fall'
'nx^_'
'device'
'827'
'datum_'
'GO^_'
'gain^_'
'dataframe_'
'lob'
'shall^_'
'TOR'
'ric'
'prob^_'
'PRIMARY^_'
'skipped^_'
'cinder^_'
'asd'
'sep'
'gid^_'
'.9'
'spr'
'escape\u^_'
'sections^_'
'Ban'
'0.23'
'identify^_'
'sha_'
'myt'
'557'
')]^_'
'description\u^_'
'terminate_'
'footer_'
'939'
'At_'
'vu'
'bold_'
'%-^_'
'](^_'
'Alarm^_'
'ame'
'decoder\u^_'
'neutron\u^_'
'=='
'Literal^_'
'769'
'ces^_'
'596'
'DIR\u^_'
'dk'
'vmin_'
'direct\u^_'
'936'
'note'
'his^_'
'Super^_'
'READ\u^_'
'cms^_'
'actor\u^_'
'RSA^_'
'FIELDS_'
''."_'
'Algorithm^_'
'Db'
'719'
'encoder^_'
'Receive^_'
'EXT_'
'Choose^_'
'NON'
'PART'
'wf_'
'gateway\u^_'
')('
'xn'
's∅'
'Without^_'
'lst'
'Runs^_'
'POST'
'IL^_'
'ssh'
'sort'
'Functions_'
'Payment^_'
'small\u^_'
'0.15'
'TER'
'det_'
'picture^_'
'hyp'
'TABLE\u^_'
'Io'
'FUNC'
'ek^_'
'Validator^_'
'Surface_'
'tion'
'2006^_'
'807'
'tostring_'
'RH'
'mime^_'
'notifications_'
':%(^_'
'310'
'WITH\u^_'
'Review^_'
'$(^_'
'receive\u^_'
'freqs_'
'rg_'
'Addr_'
'od_'
'RED_'
'scr'
'pname_'
'Sample_'
'Desktop^_'
'948'
'blur'
'spatial^_'
'TH^_'
'ron'
'meas'
'AY'
'processor^_'
'sca'
'remote'
'button'
'bm^_'
'514'
'hen'
'EL^_'
'783'
'Cho'
'ging^_'
'ies\u^_'
'tvm_'
'htm^_'
'903'
'sh\u^_'
'Poly'
''.'
'IP\u^_'
'ig_'
'Sn'
'Mac'
'--'
'collector_'
'Redirect^_'
'788'
'rh^_'
'bl^_'
'elems_'
'lse'
'ces_'
'509'
'825'
'statuses_'
'978'
'951'
'lun'
'cul'
'*(^_'
'anchor^_'
'TCA'
'Patch^_'
'673'
'making^_'
'chan'
'Dist_'
'widths_'
'CTC'
'699'
'txn_'
'joint^_'
'771'
'Req^_'
'253'
'sel\u^_'
'ctype_'
'247'
'Based^_'
'"∅∅∅∅∅∅∅"_'
'ubuntu^_'
'pes'
'md\u^_'
'ction^_'
'moz'
'216'
'ving^_'
'rr^_'
'rss^_'
'FILENAME_'
'dog'
'238'
'must\u^_'
'Waiting^_'
'increment^_'
'ick'
'survey^_'
'overrides_'
'Progress_'
'Fixture_'
'871'
'g2_'
'chu'
'cmp'
'Inline^_'
'simplejson_'
'draft^_'
'956'
'async'
'everything^_'
'970'
'Specifies^_'
'rx'
'pres'
'una^_'
'955'
'854'
'}$'_'
'gender^_'
'physical\u^_'
'por'
'Tc'
'nl_'
'macro^_'
'higher^_'
'yv'
'356'
'mp\u^_'
'template'
'ranges^_'
'nex'
'AGA'
'Then^_'
'dr^_'
'"),^_'
'Beta^_'
'")'
'fur'
'@@^_'
'758'
'pi'
'018'
'906'
'025'
'FD^_'
'produce^_'
'lice'
'spt^_'
'replaced^_'
'ack'
'\\['
'pix_'
'589'
'wrapped_'
'zed^_'
'628'
'ken'
'deno'
'hot^_'
'strat'
'fragment^_'
'handles^_'
'a∅'
'cel'
'Limit_'
'ne\u\u_'
'ilo'
'We'
'966'
'social^_'
'tain'
'Partition^_'
'MV'
'encrypted^_'
'844'
'Ec'
'fer'
'mk^_'
'kit^_'
'NODE\u^_'
'PN'
'Errors^_'
'astro'
'659'
'discord_'
'19.'
'ome'
'536'
'Tar'
'Annotation^_'
'pred^_'
'ach'
'removing^_'
'rand^_'
'376'
'iz'
'cq'
'976'
'929'
'tem'
'STR_'
'Workspace^_'
'HL'
'fri'
'OTHER^_'
'∅∅o^_'
'noc'
'App'
'sink_'
'ecc'
'192_'
'Cleanup_'
'∅∅∅∅'_'
':`'
'ry\u^_'
'Depth^_'
'uuid\u^_'
'22.'
'908'
'cut\u^_'
'grow'
'pya'
'236'
'M'
'=(^_'
'rdi'
'sn^_'
'TRI'
'Workspace_'
'npy^_'
'bgp^_'
'oz'
'negative\u^_'
'bounding^_'
'rer'
'944'
'cov'
'nltk_'
'sn_'
'SR^_'
'opened^_'
'ote'
'Refresh^_'
'Lexer_'
'contacts_'
'uuids_'
'805'
'694'
'histo'
'ord'
'525'
'010'
'Renderer^_'
'907'
'subscription\u^_'
'mes'
'given\u^_'
'266'
'uta'
'gc^_'
'931'
'cube^_'
'bt^_'
'compress_'
'SU'
'SLA'
'748'
'sl^_'
'unique'
'iu'
'"\\'
'768'
'nim'
'alphabet_'
'underlying^_'
'lazy\u^_'
'worksheet_'
'1024^_'
'00'
'0.24'
'Yu'
'ACTION^_'
'Count\u\u^_'
'mysql_'
'popup_'
'239'
'tch_'
'Tk_'
'tup'
'motion^_'
'CM^_'
'tot_'
'eye_'
'mq'
'desc'
'generator\u^_'
'"",^_'
'chat'
'Mobile^_'
'rules\u^_'
'bid'
'sion^_'
'START\u^_'
'widgets^_'
'drawing^_'
'particle^_'
'202^_'
'variant\u^_'
'GEO'
'ET\u^_'
'more\u^_'
'osi'
'ansible^_'
''&'_'
'fun^_'
'ker'
'ENTRY^_'
'mon'
'means_'
'Scene_'
'charge_'
'Cluster_'
'754'
'"("_'
'732'
'ea_'
'plane_'
'Perform^_'
'click\u^_'
'INSTALLED\u^_'
']):^_'
'Mc'
'NUMBER_'
'288'
'ATA'
'tha'
'relay_'
'irc_'
'hint^_'
'690'
'WC_'
'675'
'molecule_'
'transforms_'
'Dc'
'\\\\\\^_'
'Vec_'
'374'
'024'
'resource'
'681'
'Click_'
'describe^_'
'                 _'
'ode'
'846'
'indicator^_'
'938'
'algo_'
'972'
'coeffs_'
'delay\u^_'
'pen'
'663'
'Flask^_'
'wer'
'Form'
'}('
'Gen_'
'tv_'
'iso\u^_'
'26.'
'ect'
'jun'
'ge\u^_'
'encrypt_'
'pol'
'periods_'
'(@^_'
'desc\u^_'
'prefixes_'
'zd'
'shard\u^_'
'NB'
'hist\u^_'
'gle'
'829'
'bj'
'lst^_'
'passed_'
'869'
'EW'
'Takes^_'
'k'
'>.^_'
'lxml_'
'962'
'SETTINGS_'
'883'
'`_'
'fps_'
'739'
'405'
'Currently^_'
'855'
'stre'
'Ax^_'
'ram_'
'jk'
'netloc_'
'Slug^_'
'cer'
'878'
'579'
'EX'
'FN'
'2.2'
'ern^_'
'973'
'my'
'251'
'696'
'manifest\u^_'
'dw^_'
'Zo'
'954'
'691'
'[['
'OPTIONS_'
'1000'
'?)'
'elements\u^_'
'CJK^_'
'ik'
'ign'
'datastore^_'
'parallel_'
'It'
'YA'
'public'
'specs^_'
'general_'
'fnmatch_'
'071'
'gx'
'masks_'
'matched_'
'bill'
'Nor'
'853'
'248'
'?:^_'
'790'
'5000^_'
'wait'
'Hidden^_'
'MIS'
'Assessment^_'
'839'
'bw^_'
'UG'
'884'
'fam'
'618'
'asc'
'xw'
'bad_'
'LIB'
'dump'
'kar'
'amazon^_'
'fra'
'835'
'2013_'
'hang'
'ims'
'023'
'graphics^_'
'Sym'
'gun'
'streams^_'
'SECRET^_'
'735'
'0.28'
'implements^_'
'aut'
'described^_'
'Mz^_'
'checkpoint_'
')-^_'
'unt'
'Mt'
'932'
'literal^_'
'snap_'
'apt'
'aci'
'.{^_'
'2.7'
'sy_'
'snippet_'
'publisher_'
'smart\u^_'
'esh'
'contains\u^_'
'recipient^_'
'tim'
'nic^_'
'mx^_'
'Android^_'
'grads_'
'2.5'
'-{}'
'lon\u^_'
'065'
'E+0'
'depending^_'
'eme'
'TOKEN^_'
'Instrument^_'
'654'
'640'
'amount\u^_'
'stem_'
'als'
'Ns'
'objective^_'
'083'
'objects\u^_'
'alias\u^_'
'729'
'raises\u^_'
'935'
''-'
'cod'
'Groups_'
'ux^_'
'fft'
'hstack_'
'environment\u^_'
'emails_'
'073'
'Drop'
'IM^_'
'649'
'Mini'
'workspace\u^_'
'Smart^_'
'Off_'
'731'
'711'
'14.'
'releases^_'
'noun'
'tea'
'").^_'
'crypto^_'
'ver\u^_'
'nap'
'grey^_'
'TABLE_'
'.]'
'move'
'entry'
'uint_'
'deprecated\u^_'
'101'
'∅"_'
'mpo'
'relevant^_'
'loud'
'avatar^_'
'teams_'
'661'
'ddd^_'
'"%.^_'
'Fe^_'
'982'
'tet'
'qb'
'oint'
'hd^_'
'709'
'2.1'
'ptr'
'Chan'
'feeds^_'
'unt^_'
'AX'
'Track_'
'Gp'
'365'
'filled^_'
'wea'
'limit'
's0_'
'IX'
'Generates^_'
'785'
'RESOURCE\u^_'
'0.35'
'tier'
'He^_'
'].'
'skip'
'mods_'
'ili'
'Ms'
'caller^_'
'simply^_'
'mont'
'LEN_'
'LOCAL\u^_'
'magic^_'
'977'
'XL'
'sheet\u^_'
'cl\u^_'
'873'
'RNA^_'
'Conv^_'
'dog^_'
'MAC'
'ARGS_'
'self'
'modifier_'
'LL^_'
'0.29'
'Fn^_'
'Col'
'yh'
'096'
'vid'
'776'
'nas'
'Us^_'
'Pt^_'
'swagger^_'
'ann'
'She'
'pady_'
'stable^_'
'FOLDER_'
'sx_'
'SAM'
'831'
'datas'
'Vs'
'spec'
'Exchange^_'
'900_'
'torrent^_'
'535'
'CSS^_'
'outs_'
'spawn_'
'SB^_'
'075'
'squeeze_'
'alp'
'00010'
'album\u^_'
'EU'
'=/^_'
'interactive^_'
'fix'
'577'
'loaded\u^_'
'968'
'talk'
'annotate_'
'gdal_'
'ETH'
'scaling^_'
'032'
'fle'
'Face^_'
'qo'
'Define^_'
'DG'
'staff_'
'Worker_'
'679'
'ABS'
'Movie^_'
'BIG'
'Es'
'Soft^_'
'ling'
'salt'
'click'
'markers_'
'Char'
'Cons_'
'traffic^_'
'STRUCT_'
'pla'
'CAG'
'few^_'
'addon^_'
'581'
'cam_'
'odo'
'mj'
'hl^_'
'silent_'
'amp_'
'deleted\u^_'
'got\u^_'
'cidr_'
'Sca'
'>.'
'Features^_'
'rre'
'cls'
'Int32_'
'Lint_'
'Key'
'Pop^_'
'internet_'
'solver^_'
'Stat_'
'elem\u^_'
'974'
'749'
'ZW^_'
'761'
'Gc'
'078'
'722'
'cores_'
'"--------------^_'
'benchmark^_'
'nter'
'bank_'
'rit'
'AO'
'Chi'
'watch'
'9\u^_'
'Vars_'
'hoo'
'050'
'fq'
'fli'
'IME'
'762'
'Statement_'
'wrapped\u^_'
'896'
'campaign^_'
'140^_'
'Ss'
'customer_'
'----^_'
'985'
'sf^_'
'={'
'0.37'
'google'
'dc\u^_'
'849'
'steps\u^_'
'fault^_'
'077'
'IL'
'glob'
'SAN'
'perf'
'align\u^_'
'uar'
'hooks^_'
'extractor_'
'tta'
'Track'
'FM'
'nce'
'codon'
'sda^_'
'context'
'HB'
'son_'
'predict^_'
'bed'
'Air'
'858'
'868'
'2f'
'Slot^_'
'872'
'imi'
'Sc'
'260'
'Matcher_'
'important^_'
'275'
'Projects^_'
'dry^_'
'pic'
'cru'
'LIMIT^_'
'idle^_'
'Opt^_'
'snapshots_'
'Modify^_'
'external_'
'080'
'assemble'
'074'
'broadcast^_'
'ass^_'
'observation^_'
'alo'
'elt_'
'D1'
'Scene^_'
'Codes_'
'rep^_'
'693'
'pr'
'0.36'
'States_'
'hierarchy^_'
'ra\u^_'
'Plain^_'
'683'
'States^_'
'upd'
'magic_'
'hat_'
'MAP'
'myc'
'Expect^_'
'582'
'0.32'
'compression^_'
'Uniform^_'
'Actor_'
'bw'
'lda'
'Air^_'
'tob'
'@\\^_'
'dirty_'
'Calendar^_'
'0003'
'Translation^_'
'815'
'exec'
'LT^_'
''{{^_'
'mpl_'
'pile'
'about_'
'USER'
'fv'
''+'
'itemgetter_'
'942'
'uda'
'067'
'".."_'
'nid'
'076'
'GT^_'
'beam\u^_'
'fullpath_'
'sublime_'
'Subscription^_'
'restart_'
'743'
'Replay^_'
'Such^_'
'none\u^_'
'assumed^_'
'nen'
'aux\u^_'
'statements_'
'having^_'
'pi\u^_'
'Related^_'
'xx'
'drug'
'ht_'
'ista'
'invoked^_'
'Ol'
'arr\u^_'
'/%(^_'
'0.31'
'STATE^_'
'965'
'loader^_'
'#"_'
'nota'
'717'
'branch'
'zmq_'
'Gui^_'
'/>.^_'
'Assign^_'
'care'
'PAGE\u^_'
'FT^_'
'Requested^_'
'les'
'sme'
'MSG_'
'attempts_'
'STATE_'
'nick^_'
'APP'
'oj'
'DES'
'BUILD'
'easy^_'
'PRODUCT'
'fastq^_'
'∅t'
'pathname_'
'gb_'
'ads'
'airflow^_'
'ob^_'
'sf\u^_'
'668'
'P'
'108_'
'033'
'con'
'092'
'neo'
'aq'
'START'
'Li^_'
'iv^_'
'privilege'
'bic'
'DICT_'
'replay\u^_'
'prior_'
'EX^_'
'rank\u^_'
'rad^_'
'policies^_'
'958'
'operators_'
'Focus_'
'lly^_'
'won^_'
'chem'
'lost^_'
'elem'
'Headers_'
'23.'
'Azure^_'
'773'
'Bur'
'HOST\u^_'
'ility^_'
'">"_'
'ament'
'UR'
'eval'
'npar'
'corp'
'Om'
'Ham'
'dre'
'overlap^_'
'386'
'GCA'
'tensorflow^_'
'under'
'years^_'
'combined\u^_'
'ante'
'::=^_'
'pattern'
'dhcp^_'
'HEADER\u^_'
'772'
'bz'
'\u*'
'793'
'864'
'}"'
'smi'
'863'
'nent'
'Mem^_'
'hover'
'eth'
'STE'
'estimate^_'
'Central^_'
'Processor^_'
'MESSAGE\u^_'
'cart'
'refs^_'
'recipient_'
'year'
'ALLOWED\u^_'
'Dep'
'ator'
'patch'
'ere'
'bes'
'786'
'iso_'
'nonzero_'
'simulation_'
'nav^_'
'banner^_'
'NUCLEAR^_'
'endpoints^_'
'shlex_'
'request'
'892'
'CK^_'
'887'
'Mapper_'
'story_'
'csrf\u^_'
'RES'
'ping\u^_'
'fc\u^_'
'exact_'
'NR'
'mag^_'
'DATE_'
'ind'
'listener^_'
'fas'
'sympy_'
'perc'
'White^_'
'rw^_'
'363'
'xticks_'
'")'_'
'}]^_'
'spectrum_'
'primary_'
'csvfile_'
'CV^_'
'pv_'
'bp^_'
'686^_'
'lass_'
'batch'
'urllib^_'
'song\u^_'
''~'_'
'pull'
'yaxis_'
'buttons^_'
'967'
'sq_'
'rectangle_'
'fmt\u^_'
'Reason^_'
'aff'
'disp_'
'832'
'tex_'
'plugin'
'795'
'mount_'
'330'
'wn^_'
'sptr\u^_'
'F'
'rows\u^_'
'University^_'
'0.34'
'constants^_'
'criteria^_'
'Capacity^_'
'today^_'
'test\u\u^_'
'flash^_'
'stro'
'dn'
'UF'
'stores^_'
'ded'
'Cond'
'fro'
'QI'
'tos'
'critical^_'
'ns3\u^_'
'sell^_'
'DN'
'cname_'
'0x22'
'pyf'
'XA'
'Credentials^_'
'prediction\u^_'
'DN^_'
'lad'
'radi'
'duration\u^_'
'682'
'probability_'
'C1'
'852'
'dat'
'QU'
'wallet_'
'tail^_'
'Machine_'
'student\u^_'
'ina^_'
'ard'
'SIZE\u^_'
'expires^_'
'Os^_'
'REMOVE'
'ano'
'801'
'imu'
'guard'
'004^_'
'letters^_'
'fx'
'particles_'
'REPULSION^_'
'Weight_'
'2d'
'Circuit^_'
'draw'
'SIGN'
'fmt^_'
'passing^_'
'ttl^_'
'phone\u^_'
'lect'
'061'
'operators^_'
'dl\u^_'
'TEXT\u^_'
'decay_'
'ms\u^_'
'sb^_'
'e2'
'pymongo_'
'phi\u^_'
'lac'
'lus'
'ini_'
'boxes^_'
'nbr'
'MT\u^_'
'KT'
'AN'
'Uns'
'subs'
'<<^_'
'AI^_'
'hx'
'half\u^_'
'gam'
'Sound^_'
'cca'
'review_'
'dia'
'heap_'
'836'
'prog'
'C'
'088'
'TW'
'Fs^_'
'933'
'1000.0_'
'TRACK'
'Arn^_'
'ym'
'ail'
'Sur'
'rotation\u^_'
'Descriptor^_'
'ish^_'
'Sent^_'
'713'
'TU'
'testd'
'rep\u^_'
'w1_'
'ajax^_'
'Inline_'
'retrieved^_'
'Cv^_'
'typename_'
'han^_'
'Black^_'
'uz'
'774'
'Trans'
'genotype'
'cali'
'27.'
'ible^_'
'Page'
'sep^_'
'direct_'
'590'
'Provides^_'
'aro'
'Look'
'750'
'BOT'
'x\u_'
'pers'
'Ren'
'Qo^_'
'outd'
'quick^_'
'DEN'
'tour'
'MENT\u^_'
'bol'
'Don^_'
'796'
'github\u^_'
'059'
'nonce_'
'*)^_'
'ess_'
'dll_'
'wd^_'
'Functions^_'
'fbd^_'
'Choreo^_'
'orb'
'fee^_'
'439'
'king^_'
'amp'
'Inf'
'Before^_'
'TAC'
'BER'
'ner'
'cion^_'
'Far'
'expose_'
'eas'
'130_'
'nm^_'
'cipher_'
'forum^_'
'FLAG\u^_'
'Lower^_'
'uno'
'facebook^_'
'037'
'rot^_'
';&^_'
'recursive^_'
'route'
'sms^_'
'car_'
'ations^_'
'DEC'
'infra^_'
'tool'
'GX'
'Tk^_'
'nte'
'message'
''),)"_'
'0.15_'
'vat'
'COMM'
'matched\u^_'
'Month^_'
'trace'
'market^_'
'inde'
'\\"%^_'
'QUE'
'masked\u^_'
'ZA'
'2015_'
'386^_'
'sus'
'),'
'THE'
'kivy_'
'ZI'
'XO'
'corresponds^_'
'Wiki^_'
'had'
'vis_'
'dic'
'arrow_'
'097'
'txt'
'genome_'
'Seconds^_'
'roots_'
');"_'
'lf^_'
'obo'
'0.55'
'INVALID^_'
'abstract'
'good'
'walk^_'
'927'
'EMAIL_'
'817'
'ci∅n^_'
'kit'
'bound\u^_'
'Operations^_'
'dashboard_'
'090'
'phone'
'pdb\u^_'
'zw'
'lk'
'twi'
'tuple\u^_'
'jan'
'END\u^_'
'spl'
'1234_'
'st'
'apo'
'REV'
'257'
'fig\u^_'
'mult_'
'emi'
'take\u^_'
'Factor^_'
'band'
'888'
'XT'
'variance^_'
'wrapped^_'
'warn^_'
'epoch\u^_'
'PATTERN_'
'rect'
'look'
'p1'
'appliance_'
'0.000'
'elb'
'1e-3_'
'ends^_'
'elem^_'
'filelist_'
'bundle\u^_'
'ize\u^_'
'060'
'------^_'
'0.25'
'mime\u^_'
'gdk_'
'OFF^_'
'ffi_'
'HC'
'misc^_'
'feat\u^_'
'iza'
'LEVEL_'
'Bitmap_'
'HH^_'
'Broadcast^_'
'pris'
'cim'
'ONS'
'={}'_'
'mbi'
'CHE'
'opa'
'learn^_'
'797'
'inet^_'
'bq'
'ai'
'une^_'
'0x01'
'qt\u^_'
'enter\u\u_'
'Rules^_'
'cle'
'ese'
'dri'
'779'
'.*'_'
'est\u^_'
'games_'
'SYS'
'interpolation_'
'hw^_'
'fast\u^_'
'685'
'MN'
'\\":^_'
'ATG'
'Active_'
'751'
'install'
'...............^_'
'locs_'
'itu'
'Mag'
'wf\u^_'
'ASCII^_'
'AK'
'na\u^_'
'enc\u^_'
'emo'
'timer\u^_'
'Statement^_'
'Bot_'
'069'
'{:'
'adv'
'689'
'thermo'
'cast'
'zf'
'exc'
'468'
'gold^_'
'Gene^_'
'202_'
'axes\u^_'
'Chunk^_'
'ego'
'acl\u^_'
'TCC'
'845'
'960'
'mpt'
'properties\u^_'
'([\u\u\uCARET\u\u\u'
'safe'
'Est'
'ENGINE^_'
'IMAGE^_'
'##'
'unma'
'CG'
'bld'
'urlresolvers_'
'bm_'
'dsc'
'Zi'
'Put^_'
'"&#^_'
'articles^_'
'INF'
'marc'
'Sl'
'PREFIX^_'
'nts_'
'internet^_'
'ization^_'
'lot_'
'856'
'blue'
'Di^_'
'bus\u^_'
'Access_'
'Bio'
'imag_'
'extracted^_'
'Log'
'Logger^_'
'ege'
'CMD_'
'920'
'2.3'
'ido'
'uffff^_'
'837'
'basket'
'processing_'
'contract_'
'construct^_'
'103^_'
'ica^_'
'coef_'
'erc'
'fact_'
'esta'
'840'
'paginator_'
'WS^_'
'Lite^_'
'gp^_'
'Ns^_'
'reporter_'
'assembly^_'
'LINE_'
'971'
'Setup_'
'tsv^_'
'camp'
'imports_'
'vid_'
'Regexp_'
'genes^_'
'/*'
'pub'
'cit'
'rame'
'tho'
'subtract'
'maxsize_'
'Retry^_'
'8080^_'
'gender_'
'clouds'
'Algorithm_'
'\\.'
'broken^_'
'nal'
'946'
'100'
'negative_'
'aux^_'
'tweets_'
'928'
'Relative^_'
'tru'
'analyse'
'A1'
'Poly^_'
'XE'
'Ts^_'
'bl_'
'IDEOGRAPH^_'
'stim'
'keyword\u^_'
'pot^_'
'i∅'
'ated^_'
'family\u^_'
'Edit'
'South^_'
'APP^_'
'big\u^_'
'Lexer^_'
'erm'
'soft'
'x2'
'care^_'
'coords^_'
'valid'
'inc\u^_'
'wp^_'
'Ca^_'
'Selector^_'
'Survey^_'
'single'
'kargs_'
')\\'
'starting\u^_'
'leg'
'k2_'
'amb'
'Gro'
'graf'
'ff\u^_'
'ntr'
'kv_'
'statements^_'
'flush^_'
'Age^_'
'For'
'scs'
'enta'
'zin'
'pathlib_'
'lco'
'ESS'
'SMS^_'
'wee'
'255'
'669'
'Saved^_'
'random'
'common'
'debugging^_'
'repr^_'
'nut'
'xi^_'
'Gy'
'574'
'apa'
'node1_'
'ipc'
'A1_'
'700'
'pump'
'DW'
'POSITION'
'GAA'
'byref_'
'Construct^_'
'Ansible^_'
'Duration_'
'say^_'
'chr'
'Ratio^_'
'068'
'{!^_'
'probe^_'
'ier'
'turb'
'realm^_'
'"#'
'tries_'
'specific\u^_'
'Deb'
'eg_'
'union^_'
'kill\u^_'
'Dev'
'roll'
'snake'
'share'
'deprecated_'
'viewer_'
'extended\u^_'
'vs\u^_'
''∅∅∅∅^_'
'describing^_'
'vie'
'Simulation^_'
'Dot^_'
'Part'
'migration\u^_'
'human\u^_'
'MAP^_'
'days\u^_'
'sentence\u^_'
'005^_'
'retcode_'
'further^_'
'n'
'Street^_'
'correlation^_'
'calib'
'Chart^_'
'0x10'
'trial^_'
'"/'
'credit^_'
'sso'
'irc'
'Bz^_'
'ATION^_'
'scanner_'
'534'
'unused^_'
'RESULT\u^_'
'CQ'
'084'
'nump'
'finish\u^_'
'iate'
'qos^_'
'general\u^_'
'{{'
'SECOND'
'Forward^_'
'markdown^_'
'MASK_'
'"]'_'
'den'
'allow'
'false\u^_'
'xin'
'ppl'
'arg1_'
'PK'
'ls\u^_'
'MODEL\u^_'
'counter\u^_'
'Uses^_'
'scroll\u^_'
'oll'
'certificate_'
'controllers_'
''{'_'
'centers_'
'follows^_'
'photo'
'legacy^_'
'buf'
'Ali'
'transition\u^_'
'tbl^_'
'Amount^_'
'Pat'
'orientation^_'
'REQUIRED^_'
'501'
'deep'
'cu'
'ar'
'monitoring^_'
'Ea'
'Detail_'
's1'
'attrib^_'
'759'
'Comb'
'linear_'
'cgi^_'
'adj'
'ran'
'Draw'
'0.40'
'submitted^_'
'uin'
'issues_'
'artifact\u^_'
'752'
'manage\u^_'
'TS_'
'aps'
'hints_'
'Self^_'
'files'
'BUS'
'dialog\u^_'
'GRE'
'addition^_'
'841'
'datas_'
'Cr'
'851'
''%.^_'
'922'
'tip^_'
'polygon^_'
'indicate^_'
'fore'
'control'
'122^_'
'branches_'
'">\\^_'
'Records^_'
'Kar'
'280'
'ugettext\u^_'
'texture_'
'RD^_'
'secure^_'
'Pra'
'steam'
'859'
'0.70'
'086'
'ment\u^_'
'expressions^_'
'Net_'
'kw^_'
'prime^_'
'newi'
'ike'
'genre^_'
'r'
'nne'
'Add'
'3.0'
'IH^_'
'))'_'
'874'
'etag_'
's\u\u_'
'caption^_'
'103_'
'rc\u^_'
'791'
'sa\u^_'
'imo'
'convert'
'BG^_'
'450'
'pools_'
'Variant_'
'roc'
'lis'
'Her'
'ota'
'CTG'
'nz'
'transformation^_'
'730'
'sac'
'contain'
'card'
'UU'
'://"_'
'remove'
'understands^_'
'PASS'
'104_'
'ets_'
'Pa^_'
'secondary\u^_'
'w'
'less_'
'UDP^_'
'NK'
'FAIL^_'
'AH'
'poly^_'
'IU'
'ffi'
'tunnel^_'
'763'
'Since^_'
'tests'
'Ui\u^_'
'Rpc^_'
'lex'
'dirs^_'
'Nic'
'logo'
'advanced^_'
'Lists^_'
'2048_'
'ill'
'vnf\u^_'
'Connected^_'
'osd'
'3.9'
'title'
'done\u^_'
'Pic'
'tcp\u^_'
'""'
'writer^_'
'wind'
'ify^_'
'hr_'
'0x18_'
'0.99'
'Roll'
'gl'
'restrict'
''$'_'
'ici'
'v0_'
'tri'
'try'
'doing^_'
'world\u^_'
'HSG^_'
'inverse^_'
'gate^_'
'controls^_'
'RM^_'
'30.'
'ae_'
'BSD^_'
'bob^_'
'AGC'
'preds_'
'his'
'compression_'
'arbitrary^_'
'numa'
'module'
'"*.^_'
'893'
'cate'
'ance_'
''\u'
'disable_'
'formatting^_'
'select'
''\\\\'
'ech'
'grand'
'ong'
'Scheduler_'
'roi_'
'+)^_'
'RESPONSE_'
'Db_'
'Pack^_'
'recent\u^_'
'strip'
'OBJECT^_'
'089'
'aca'
'reported^_'
'420'
'med^_'
'cas'
'fname^_'
'assignment\u^_'
'Pipeline_'
'Nd'
'Green^_'
'office'
'mma'
'cons_'
'rpc'
'ord^_'
'vendor_'
'attachments_'
'vr^_'
'tweet^_'
'ldap_'
'rew'
'gent'
'visible\u^_'
'DESCRIPTION_'
'822'
'NP^_'
'memo'
'movies^_'
'complex\u^_'
'Mari'
'10000^_'
'079'
'pit'
'Kh'
'Tre'
'superuser_'
'plan\u^_'
'crop_'
'rei'
'regression^_'
'Mc^_'
'hist^_'
'Kn'
'asa'
'wa^_'
'idl'
'past^_'
'crash^_'
'writes^_'
'slope_'
'503'
'Kind_'
'BUTTON_'
'weighted^_'
'Build_'
'bou'
'WP'
'promote'
''∅∅∅∅∅∅∅'_'
'par\u^_'
'mpls^_'
'loadtxt_'
'filtering^_'
'does\u^_'
'Modules^_'
'Pop'
'VC^_'
'folder'
'Spark^_'
'nombre^_'
'replica^_'
'args'
'amo'
'GH'
'KK'
'eigen'
'[(^_'
'evaluate\u^_'
'Term_'
'OE'
'fields\u_'
'TOKEN\u^_'
'outer_'
'mst'
'Join^_'
'Negative^_'
'instruction^_'
'cores^_'
'configs^_'
'warn\u^_'
'disk'
'502'
'subt'
':\\\\^_'
'KD'
'794'
'marked^_'
'nq'
'configurations^_'
'zones_'
'Gar'
'pixbuf_'
'tensors^_'
'health\u^_'
'abcd^_'
'034'
'>>'
'cion_'
'BUILD^_'
'OUT\u^_'
'svc_'
')*'
'Son'
'printed^_'
'cf\u^_'
'Incorrect^_'
'goal\u^_'
'questions_'
''%'
'qos\u^_'
'REQUEST\u^_'
'checkequal_'
'fatal_'
'nrows_'
'ake'
'replacement_'
'passwd^_'
'`):^_'
'wire^_'
'ii^_'
'subd'
'rede'
'QUA'
'RAT'
'multiply_'
'ZZ'
']?'
'ual'
'wal'
'ssl'
'dbm'
'panel\u^_'
'nom'
'0.33'
'chars^_'
'codename^_'
'tte'
'sic'
'stdin^_'
'881'
'CTA'
'nv^_'
'metaclass\u\u_'
'pipe'
'TGT'
'pressed_'
'Best^_'
'Pin'
'thickness_'
'GAG'
'Mat_'
'tech'
'mate'
'minimum\u^_'
'===^_'
'subf'
'die^_'
'caffe'
'ifi'
'959'
'unnamed^_'
'chain'
'Uc'
'2.6'
'*/'
'102'
'deal^_'
'Plane^_'
'Columns_'
'YPE\u^_'
'cif'
'All'
'crypto_'
'360'
'filt_'
'News^_'
'follow_'
'82.0_'
'sdk_'
'dio'
'ule'
'arti'
'q2_'
'directories_'
'Bind^_'
'uli'
'ama'
'ERA'
'using\u^_'
'take'
'pace_'
'0.38'
'tm\u^_'
'Dump^_'
'444'
'011^_'
'option'
'TARGET^_'
'Cg'
's'
'833'
'expand'
'cript^_'
'fp\u^_'
'2.8'
'550'
'mime_'
'ede'
'64\u^_'
'Un^_'
'slow^_'
'sat^_'
']'
'yx'
'sender\u^_'
'startup^_'
'attack^_'
'DESC^_'
'des'
'markdown_'
'fine'
'112_'
'integer\u^_'
'resources\u^_'
'street^_'
'testing\u^_'
'generating^_'
'ACA'
'membership^_'
'UNIFIED^_'
'asp'
'PIC'
'inst^_'
'condition\u^_'
'027'
'Guest^_'
'inh'
'drivers_'
'PRINT'
'DEBUG\u^_'
'yl'
'Aggregate^_'
'1e-6_'
'Gen'
'cgi_'
'webs'
'OFF_'
'Wl'
'AAT'
'ical^_'
'ict'
'fv^_'
'cti'
'iters_'
'ster'
'interpolate_'
'inline_'
'YD'
'21.'
'invoice_'
'duplicate\u^_'
'PO^_'
'mongo\u^_'
'synth'
'EOF^_'
'builtin^_'
'w2_'
'="'_'
'3.3'
'25.'
'factories_'
'Conference^_'
'nca'
'TO_'
'gg^_'
'yar'
'staticfiles^_'
'051'
'visibility^_'
'alarm_'
'4.1'
'Day_'
'Couldn^_'
'121^_'
'Sizer'
'Rc'
'includes_'
'NX'
'FG'
'compiled^_'
'gevent_'
'">%^_'
'dba'
'MENT^_'
'embedding^_'
'dos'
'rip'
'dag'
'lista^_'
'Graphic'
'<\\^_'
'clim'
'listing_'
'doctest_'
'4.2'
''$'
'vert'
'879'
'Prec'
'Direction^_'
'boost'
'ERR^_'
'dbus\u^_'
'ball_'
'indexed^_'
'Executor_'
'085'
'Skill^_'
'fallback_'
'decay^_'
'subprocess^_'
'dependent^_'
'QC'
'537'
'Medium^_'
'import\u\u_'
'RFC^_'
'logger\u^_'
'Instr_'
'Fix'
'ending^_'
'sai'
'ert'
'story^_'
'bis'
'PG^_'
'stan'
'computer^_'
'adj_'
'represented^_'
'but'
'decoder^_'
'Void_'
'0000002'
'ull'
'led_'
'health_'
'~~~~~~~~~~~~~~~^_'
'vw'
'scheduled^_'
'ets^_'
'Num'
'Compare^_'
'player'
'con\u^_'
'PV^_'
'112^_'
'deg'
'DIRS_'
'reading_'
'107_'
'Notification_'
'NS\u^_'
'eso'
'00002'
'fromtimestamp_'
'datadir_'
'rom'
'rgs_'
'SQ'
'TAA'
'STDOUT_'
'determined^_'
'vertices^_'
'torrent\u^_'
'routine^_'
'WX'
'est'
'OFF'
'ARM^_'
'KL'
'elect'
'ops'
'Tf'
'Shell_'
'Nested^_'
''''
'guid^_'
'complex'
'report'
'Al^_'
'Ei^_'
'<%^_'
'ship_'
'}{'
'vim_'
'locked_'
'Alias^_'
'primer'
'Units_'
'Global_'
'Load_'
'CAR'
'tasks\u^_'
'probably^_'
'relations_'
'ATI'
'mapcss_'
'combo\u^_'
'895'
'reso'
'xbmcplugin_'
'Writing^_'
'deck_'
'f4'
'crop^_'
'Front^_'
'bec'
'neg'
'Err_'
'ATOM^_'
'parameters\u^_'
'copied^_'
''))^_'
'20140'
'350'
'tm^_'
'Luint_'
'oin'
'HB^_'
'Aw'
'OT^_'
'0.97'
'previously^_'
'ono'
'SAMPLE\u^_'
'Cm'
'PORT\u^_'
'}|'
'Img_'
'frontend^_'
'VA^_'
'lv^_'
'fold'
'dense\u^_'
'PROP'
'ment'
'blk'
'Ba^_'
'114_'
'aggregate\u^_'
'Debug_'
'embeddings_'
'ool^_'
'grade^_'
'cand'
'ew_'
'elastic'
'special_'
'VF'
'Sec^_'
''{}'_'
'imgs_'
'active'
'Minimum_'
'fcntl_'
'Solid^_'
'Construction^_'
'slave\u^_'
'restart\u^_'
'postgres^_'
'rfind_'
'rho\u^_'
'006^_'
'KP'
'Play'
'639'
'Tlv^_'
'Una'
'itervalues_'
'RP^_'
'executing^_'
'logfile'
'esse'
'efi'
'YP'
'ins'
'idle\u^_'
'*('
'Iv'
'CLR^_'
'expires_'
'rk'
'Subnet^_'
'.00'
'cred_'
'boto3_'
'dead^_'
'LIMIT_'
'pom'
'aio'
'YAML^_'
'35.'
'}'"_'
'nge_'
'toolbar^_'
'roi\u^_'
'ew^_'
'eve'
'bear'
'533'
'received\u^_'
'invoice\u^_'
'far^_'
'My'
'Ipv4^_'
'∅s'
'dz'
'mismatch^_'
'Thu'
'Pm'
'','
'rich'
'838'
'539'
'038'
'exist\u^_'
'422'
'latest_'
'Deprecation^_'
'publisher^_'
'028'
'photo\u^_'
'Heat^_'
'nd\u^_'
'Population^_'
'Loc_'
'att_'
'224_'
'unde'
'tore_'
'Documents^_'
'lr\u^_'
'Xml_'
'Fp'
'Bor'
'105^_'
'door'
'tpl_'
'mixed^_'
'MPL'
'interaction^_'
'pod'
'pv^_'
'ordered_'
'XXX^_'
'positive_'
'eo^_'
'bs4_'
'libraries^_'
'Metrics^_'
'CFG_'
'tip_'
'sna'
'contexts_'
'snapshots^_'
'HEA'
'supported_'
'turn\u^_'
'distro_'
'ted\u^_'
'follow\u^_'
'fid'
'tat'
'Did^_'
'yo^_'
'apple^_'
'Foo_'
'books^_'
'LES'
'holder_'
'DOC'
'UV'
'Sv^_'
'Ac^_'
'far'
'Downloading^_'
''{}'^_'
'yan'
'ell^_'
'aster'
'grant^_'
'f2'
'Pu'
'rave'
'spo'
'tipo^_'
'followed^_'
'ping'
'fic'
'variance_'
'cards^_'
'Abs'
'boo'
'digit^_'
'shape'
'115^_'
'regs_'
'Pending^_'
'QL^_'
'srv_'
'Linked^_'
'2014_'
'JM'
'115_'
''\u\u\uCARET\u\u\u\'
'cov^_'
'ulo'
'LY^_'
'orange^_'
'deleting^_'
'PP^_'
'Path'
'0.39'
'---'
'Lazy^_'
'20.'
'eid_'
'lag'
'Watch^_'
'Conv'
'nic'
'spark^_'
'Toggle^_'
'fixture\u^_'
'aspect_'
'inline\u^_'
'indices\u^_'
'..'_'
'gradient\u^_'
'Solution^_'
'zing^_'
'hub^_'
'ard_'
'TRANS'
'SOURCE\u^_'
'Ci^_'
'CCT'
'psd'
'leak'
'frac_'
'threshold\u^_'
'ec2_'
'AST^_'
'own_'
'Like^_'
'QA^_'
'FRAME'
'keyboard^_'
'dea'
'was\u^_'
'door^_'
'Dar'
'surface\u^_'
'registers_'
'cac'
'Allowed^_'
'pat'
'edges\u^_'
'0x0000'
'its_'
'drop'
'Answer^_'
'mg_'
'alc'
'Polygon_'
'Figure^_'
'DM^_'
'cis'
'extendable_'
'nts^_'
'mesh'
'animate'
'WAIT'
'0x12'
'neighbour'
'ast\u^_'
'votes_'
'WG'
'Intel^_'
'mba'
'1072^_'
'numb'
'nie'
'registry\u^_'
'onc'
'atm'
'dhcp\u^_'
'slave_'
'FORMAT^_'
'lu^_'
'Ele'
'Bri'
'+\\'
'factor\u^_'
'act'
'band\u^_'
'Et'
'ints_'
'notifier_'
'ior^_'
'solve^_'
'UND'
'm2'
'provisioning^_'
'Ack^_'
'fde'
'Route_'
'BACK'
'ITE'
'supply^_'
'Fn_'
'TASK\u^_'
'Bel'
'quota_'
'gua'
'method'
'Http404_'
'div'
'cov\u^_'
'Em'
'roll^_'
'gas^_'
'vers'
'rli'
'backward_'
'Selected_'
'Identity_'
'todo_'
'Com'
'yk'
'little^_'
'det'
'.*?)'
'edo'
'firewall^_'
'SERVER_'
'force'
'hu^_'
'Alt^_'
'"],^_'
'meth'
'=-^_'
'hierarchy_'
'gap^_'
'Oa'
'Ng'
'pep'
'fail'
'ado'
'Completed^_'
'Spi'
'Cg^_'
'gab'
'wpa'
'Bucket_'
'lim_'
'focus\u^_'
'jen'
'hunt'
'fol'
'Det'
'Messages_'
'tax\u^_'
'digest^_'
'kb_'
'Sensor_'
'exit\u\u_'
'bug_'
'coco'
'struct'
'Mem'
'Fs'
'soa'
'fl^_'
'met^_'
'087'
'pins_'
'canonical^_'
'INITIAL'
'six^_'
'Ref'
'ete'
'Either^_'
'Arr_'
'portal^_'
'KR'
'scalar\u^_'
'circ'
'chunks^_'
'prec_'
'arn_'
'traj_'
'characters_'
']"'
'Scope_'
'xc_'
'iste'
'dependency\u^_'
'0000000'
'versionadded^_'
'gst'
'Messages^_'
'MAP\u^_'
'eter'
'Pair_'
'ej'
'Prop_'
'DATABASES_'
'embed\u^_'
'TM^_'
'AH^_'
'isc'
'YN'
'T1'
'Fire'
'ice'
'unk'
'arc_'
'ox'
'Sending^_'
'0011'
'mon_'
'opp'
'where\u^_'
'f1'
'parameterized_'
'benchmark_'
'flu'
'observation_'
'Parsing^_'
'MAX'
'CW'
'Components_'
'/><^_'
'pher'
'Super'
'primitive_'
'crea'
'000000000^_'
'ipl'
'ctx\u^_'
'token'
'maxs'
'eam_'
'para_'
'hmm'
'0430^_'
'0x02_'
'oss'
'LN'
'unary\u^_'
'Fix^_'
'forward'
'watch_'
'visitor_'
'ipv6\u^_'
'genre_'
'challenge^_'
'949'
'recipe\u^_'
'Suite^_'
'get'
'tb\u^_'
'IE\u^_'
'isn'
'months_'
'gpu^_'
'rce'
'20.0_'
'8000^_'
'TION^_'
'ner_'
'ARG\u^_'
'""^_'
'serv'
'alter\u^_'
'AAC'
'Split_'
'notebook^_'
'tvshow'
'hash\u\u_'
'Html_'
'Fil'
'installed\u^_'
'shadow^_'
'whe'
'needed_'
'1400'
'urlpatterns^_'
'enabled\u^_'
'885'
'32\u^_'
'"{'
'Curve_'
'sing'
'tester^_'
'emit\u^_'
'addon\u^_'
'adz^_'
'3e'
'chainer_'
'lta'
'keyboard_'
'Runner^_'
'VAL^_'
'1101'
'Cl^_'
'ock'
'php'
'ial'
'm'
'REGS^_'
'recommended^_'
'ions\u^_'
'pli'
'hap'
'calibration^_'
'∅∅∅∅∅∅'
'(.*)'
'develop'
'vars\u^_'
'dlo'
'smb'
'LE\u^_'
'ingest'
'8e'
'Il'
'4.7'
'Vec^_'
'Fan'
'(%(^_'
'verification^_'
'az^_'
'rid^_'
'jf'
''**'
'mark'
'preferences_'
'zk'
'scenario\u^_'
'given_'
'ral'
'zh'
'Wall'
'oto'
'videos_'
'0.66'
'teste'
'dfhf^_'
'fold_'
'fasta_'
'FAILED_'
'rab'
'443'
'colors'
'Var'
'Dist^_'
'LOC'
'moo'
'bulk^_'
'psycopg2_'
'V1^_'
'sx'
'}.{^_'
'Program_'
'rop'
'bind'
'metaclass_'
'atomic^_'
'plan'
'codec_'
'checkout^_'
'By'
'tensor'
'Pbb^_'
'anne'
'ec2\u^_'
'website_'
'folders^_'
'mil'
'Hal'
'mlp'
'ente'
'Chrom'
'En^_'
'readable_'
'SESSION\u^_'
'signed\u^_'
'postprocess'
'Tom'
'literal\u^_'
'material\u^_'
'eda'
'unix^_'
'vector'
'A2'
'iva'
'capitalize_'
'PROCESS'
'anchor\u^_'
'pkgs_'
'articles_'
'375'
'handles_'
'Ig'
'cnt^_'
'popup^_'
'attempts^_'
'104^_'
'display'
'{'_'
'{}.^_'
'Sm'
'pick^_'
'Mj^_'
'LATE'
'Vt'
'moves^_'
'ern'
'mul'
'bur'
'sty'
'Cro'
'Rename^_'
'Jin'
'hub_'
'y'
'uma'
'redo'
'ems'
'Host'
'Deleted^_'
'3.8'
'white_'
'qg'
'pa\u^_'
'attention^_'
'l3\u^_'
'ico^_'
'IST'
':</^_'
'bond^_'
'Type\u^_'
'INS\u^_'
'Variant^_'
'feedback^_'
'dimensional^_'
'SL^_'
'Ps'
'cast\u^_'
'Iter_'
'vk'
'Blog^_'
'ml\u^_'
'Sp'
'revision\u^_'
'ENS'
'Qu'
'people_'
'erver^_'
'Pot'
'Labels^_'
'T1_'
'Copy_'
'2n'
'severity_'
'eig'
'das^_'
'UNA'
'lient_'
'translation\u^_'
'sand'
'cancermap^_'
'artist\u^_'
'Specific^_'
'046'
'tooltip_'
'stp'
'ange'
'DF_'
'wild'
'Stage^_'
'ffe'
'tot\u^_'
'resample'
'Cc'
'&\\^_'
'extend\u^_'
'legacy\u^_'
'GREEN_'
'custom'
'YI'
'Production^_'
'tgt_'
'contacts^_'
'mnt^_'
'mappings^_'
'.{}'
'0.41'
'Over^_'
'prices_'
'ool'
'bottle_'
'capabilities^_'
'scen'
'journal_'
'Summary_'
'Map'
'Github^_'
'Drive^_'
'sos'
'WD'
'sta^_'
'Prop'
'Classifier^_'
'user1_'
'literal_'
'rus'
'FOUND_'
'DE'
'upon^_'
'Nothing^_'
'AW'
'CLASSES_'
'sop'
'Oc'
'highlight^_'
'MG^_'
'0.96'
'hosts\u^_'
'%\\^_'
'waveform'
'CGG'
'kern'
'ov^_'
'45.'
'preview_'
'graphics_'
'Pointer^_'
'Ability^_'
'protobuf_'
'\\*'
'Ui^_'
'222^_'
'credentials\u^_'
'CONNECT'
'af_'
'.."_'
'argv^_'
'ation'
'queues_'
'emission'
'benchmark\u^_'
'ST_'
'However^_'
'foreign\u^_'
'perf\u^_'
'hero'
'yang\u^_'
'larger^_'
'getmethods\u\u_'
'explicitly^_'
'047'
'kb^_'
'combination^_'
'subclass_'
'mos'
'vote_'
'ture^_'
'connector^_'
'cmp\u^_'
'quo'
'IMPORT'
'vp^_'
'hou'
'Ber'
'element'
'touch_'
'tive^_'
'Robot^_'
'gap'
'fac'
'axis'
'767'
'sip^_'
'ogr'
'RB^_'
'express^_'
'dro'
'cost'
'Rest'
'Ov'
'pix'
'UA^_'
'Blueprint_'
'thick'
'decoded_'
'ticket\u^_'
'Lab^_'
'ses_'
'rac'
'TGA'
'}'
'sur^_'
'Nm'
'corner^_'
''}^_'
'decl_'
'WHITE_'
'3.1'
'fasta\u^_'
'OB'
'BLOCK\u^_'
'Book_'
'psi_'
'conta'
'095'
'sage^_'
'Binary_'
'maximum\u^_'
'fon'
'OS_'
'mit^_'
'tas'
'mess'
'Yi'
'migration_'
'ba_'
'MAT'
'DRA'
'Focus^_'
'cco'
'Atom_'
'vari'
'Vert'
'TD^_'
'pto'
'voc'
'near^_'
'ead'
'sion'
'Save_'
'overlay_'
'ools_'
'Human^_'
'Gh'
'DATABASE^_'
'colon'
'Next_'
'floor^_'
's3db_'
'dists_'
'Deployment^_'
'0x20'
'VL'
'4294967295^_'
'MAR'
'network'
'arch'
'ortho'
'Serialized^_'
'Africa^_'
'KB^_'
'stage'
'connected\u^_'
'overlay\u^_'
'filetype_'
'neg^_'
'cond\u^_'
'Fre'
'Clock_'
'Spatial^_'
''\u\u\uCARET\u\u\u''
'trend'
'ut\u^_'
'Payload^_'
'chart\u^_'
'COMMAND\u^_'
'sss'
'fuzz'
'epsilon^_'
'rj'
'dateutil_'
'121_'
'ni_'
'Document'
'architecture^_'
'Version'
'SCHEMA_'
'2012_'
'#%^_'
'ART'
'Cn^_'
'estr'
'vms_'
'SE'
'importer_'
'dataframe^_'
'Dock^_'
'reqs_'
'badge'
'Launch^_'
'nested_'
'border'
'tempo'
'Dec^_'
'3.4'
'Exec^_'
'EMAIL^_'
'tile'
'feature'
'0x11'
'LEVEL\u^_'
'Moment'
'bn_'
'NR^_'
'arch\u^_'
'paragraph^_'
'Ak'
'":"'
'FH'
'uf_'
'sz^_'
'GCG'
'variants_'
'surf'
'located^_'
'GR^_'
'plat'
'udi'
'mdi'
'Nix^_'
'List\u^_'
'Bas'
'MY'
'tgt\u^_'
'tell'
'ift'
'signal'
'Adv'
'downloads^_'
'rein'
'glyph^_'
'browse_'
'codec'
'Dim^_'
'="{^_'
'ite_'
':<^_'
'SIN'
'"*'
'Model'
'double'
'resume^_'
'dock'
'0.80'
'iot'
'can_'
'Serializer^_'
'ung'
'0.90'
'pw\u^_'
'Sign'
'cross_'
'2.9'
'triggered^_'
'small'
'pen^_'
'Variables_'
'Texture^_'
'bug'
'trees^_'
'sampler_'
'maxi'
'Fragment^_'
'220^_'
'playbook'
'Hol'
'looking^_'
'∅e^_'
'absolute_'
'ffff^_'
'sv_'
'TARGET\u^_'
'looks^_'
'fact^_'
'GCC'
'leaf\u^_'
'Fun'
'83.0_'
'visualize'
'ral^_'
'less\u^_'
'warning\u^_'
'ADDR_'
'gol'
'TL^_'
'dense^_'
'maxlen_'
'stl'
'our'
'ties_'
'delim_'
'seg^_'
'cp\u^_'
'ask\u^_'
'END'
'emails^_'
'newt'
'logo_'
'LIC'
'Thost^_'
'ground\u^_'
'adr'
'weighted\u^_'
'TEN'
'EB^_'
'toi'
'0.44'
'sickbeard_'
'disks_'
'instrument\u^_'
'upgrade\u^_'
'"$'
'Mis'
'autop'
'road'
'PARAMS_'
'transports_'
'choice\u^_'
'bios'
'platforms_'
'tan'
'mati'
'SON'
'volt'
'TIN'
'0.43'
'|"_'
'session'
'neighbor^_'
'ced'
'WEB'
'Office^_'
'ank'
'ize'
'aga'
'Es^_'
'tools\u^_'
'USERNAME_'
'Period_'
'rdf'
'sign'
'come^_'
'authorized^_'
'Company^_'
'exe\u^_'
'weak'
'unsupported^_'
'Block'
'pic^_'
'getp'
'Zu'
'POS^_'
'Err'
'nombre_'
'baseline^_'
'Rot'
'224^_'
'KD^_'
'mapped\u^_'
'trial\u^_'
'TTC'
'truth^_'
'sampling\u^_'
'Amp'
'drivers^_'
'details\u^_'
'cta'
'Performance^_'
'compressed^_'
'generators_'
'asm'
'Matching^_'
'BUTTON\u^_'
'dicts^_'
'star\u^_'
'keep'
'devi'
'rdf\u^_'
'dee'
'outfile^_'
'custom_'
'rge'
'ECT'
'pou'
'zoom\u^_'
'wt_'
'Keep^_'
'L1'
'fieldname_'
'ZM'
'026'
'0.42'
'ort'
'iam^_'
'got'
'4.4'
'gradients_'
'UPDATE\u^_'
'TGG'
'fish^_'
'254^_'
'VALUE\u^_'
'mist'
'Plan^_'
'DATABASE\u^_'
']-'
'Ana'
'Mid'
'Mode'
'Jun'
'food^_'
'Emp'
'($^_'
'ount_'
'b64decode_'
'packed_'
'uff'
'representation_'
'vad'
'ams'
'xref'
'Hy'
'COMPA'
'udf'
'0x04'
'Inner^_'
'Cd^_'
'artifact^_'
'Fer'
'ket'
'fel'
'cts_'
'Quality^_'
'optimizer^_'
'saver_'
'gives^_'
'Variables^_'
'nf^_'
'presence^_'
'ell'
'Longitude^_'
'={}'
'mari'
'halo'
'REGION'
'BY'
'Ball'
'}>'
'handled^_'
'2016_'
'tent'
'interpreter_'
'nc\u^_'
'transactions_'
'may'
'moved^_'
'>{^_'
'}"'_'
'yte'
'rfc'
'idp'
'jj_'
'entered^_'
'264^_'
'"-'
'infra'
'DP^_'
'ities_'
'attachments^_'
'you'
'Console_'
'bul'
',,^_'
'chl'
'v2'
'yin'
']\\'
']['
'Y2_'
'Dp'
'epa'
'GTG'
'rio'
'ware^_'
'ITEM\u^_'
'delete'
'rob'
'Monitor_'
'dth'
'VD'
'Binding^_'
'touch^_'
'pec'
'lit_'
'nla'
'CGT'
'ios\u^_'
'fy'
'quest'
'intended^_'
'currency\u^_'
'Key\u^_'
'published_'
'how_'
'INDEX_'
'eng^_'
'tic'
'modes^_'
'seen\u^_'
'Cl'
'Finder^_'
'Comp'
''!'_'
'008^_'
'deployment_'
'TX'
'life^_'
'Gm'
'gray_'
'surf_'
'filesystem_'
'matmul_'
'Nb'
'fm_'
'film'
'SECRET_'
'using_'
'Sun'
'AAG'
'rv'
'jinja2_'
'Female^_'
'/)'
'∅s^_'
'~\\^_'
'tal^_'
'MOD'
'ele_'
'c0_'
'sap'
'DIRECT'
'Switch_'
'1e-4_'
'Canvas^_'
'Sock'
'Pres'
'ous_'
'copyfile_'
'Coord_'
'merged_'
'0000000^_'
'runner\u^_'
'CGC'
'fx_'
'augment'
'fund'
'mes^_'
'nuc'
'fingerprint_'
'9999'
'com\u^_'
'VARCHAR^_'
'LOGIN\u^_'
'ARG'
'taxa'
'comp'
'intersect'
'NEW^_'
'expr'
'respond'
'results'
'parallel\u^_'
'coa'
'morph'
'compat^_'
'lista'
'HP^_'
'smaller^_'
'Wei'
'sob'
'eba'
'Sheet^_'
'decrypt_'
'Sorry^_'
'nce\u^_'
'∅∅∅∅∅∅'_'
'uct'
'Real'
'node2_'
'Neutron^_'
'Trade^_'
'ndr'
'autom'
'957'
'proof'
'dens'
'COL'
'prompt\u^_'
'comb'
'stale'
'rto'
'ends_'
'"]"_'
'Fail'
'gd^_'
'NTA'
'BS^_'
'adapter^_'
'0.60'
'listen'
'bands_'
'x3_'
'TH'
'kit_'
'apiclient_'
'Die'
'Endpoint_'
'menubar_'
'samp'
'ANT'
'ario'
'episodes_'
'."^_'
'pol_'
'pod_'
'jp^_'
'Cleanup^_'
'svc\u^_'
'subnet'
'TTG'
'dropout\u^_'
'o1_'
'motor^_'
'props\u^_'
'GTC'
'Spo'
'Sy'
'ARI'
'tarfile_'
'Bea'
'ka_'
'Flow_'
'dde'
'byte'
'shade'
'Inputs^_'
'SPI'
'operator\u^_'
'[\u\u\uCARET\u\u\u>'
'oot_'
'Information_'
'iris_'
'Mail'
'discovery^_'
'fir'
'7e'
'others^_'
'ljust_'
'initialized_'
'Modal_'
'gis^_'
'unb'
'ckpt'
'CLIENT^_'
'zv'
'qua'
'DR^_'
'Lambda^_'
'padding\u^_'
'TMP'
'Writer^_'
'parents^_'
'ire^_'
'ctr'
'olve'
'hon'
'purpose^_'
'bw_'
'Inc'
'USERNAME^_'
'sink\u^_'
'ames_'
'KEYS_'
'resc'
'spa'
'sense^_'
'ATION\u^_'
'zope_'
'cg_'
'no'
'yle'
'percent\u^_'
'trade^_'
'pywikibot_'
'BN'
'-]'
'meter\u^_'
'ipv4\u^_'
'029'
'Replace'
'angle'
'smtp^_'
'tweet\u^_'
'ien'
'34.'
'pole'
'.-'
'cap\u^_'
'Where^_'
'Successfully^_'
'PASS^_'
'tabs^_'
'Bp'
'lm_'
'kj'
'Users_'
'HAVE^_'
'quot^_'
'jar_'
'Tasks^_'
'Listener^_'
'pig'
'interactive_'
'u1_'
'sed'
'replica\u^_'
'gapic\u^_'
'Ft'
'ratio\u^_'
'gas'
'configfile_'
'ria'
'checkbox^_'
'alive^_'
'North^_'
'""""""_'
'nif'
'Take^_'
'curl'
'0x001'
'Wdg_'
'voltage^_'
'CAL'
'-{^_'
'ses'
'HORIZONTAL_'
'4.3'
'nom^_'
'"}'_'
'treeview_'
'eal'
'att'
'cidr^_'
'Links^_'
'zar'
'STR'
'sali'
'240^_'
'Ldb_'
'submission\u^_'
'expired^_'
'.2_'
'i01_'
'cluster'
'kom'
'SHE'
'geom'
'bright'
'Exceptions^_'
'WL'
'Frame'
'rams_'
'gm_'
'Dl'
'nes'
'OPEN'
'Dist'
'pod^_'
'Something^_'
''=='_'
'stamp'
'portal_'
'thi'
'022^_'
'fetch'
'TOP_'
'Tru'
'interest^_'
'homo'
'rgb\u^_'
'hum'
'Org^_'
'ppi'
'Current_'
'Images_'
'KC'
'Update'
'serialization_'
'gens'
'Words_'
'assessment^_'
'stuff_'
'Shandong^_'
'ctrl\u^_'
'oup'
'reviewer'
'4.8'
'API'
'pc\u^_'
'ASS'
'Working^_'
'geni'
']+'_'
'MENU_'
'DST^_'
'ADD'
'photos^_'
'postgresql^_'
'37.'
'0002^_'
'clu'
'United^_'
'profile'
'obj\u_'
'automatic\u^_'
'Py_'
''])^_'
'../^_'
'2004^_'
'∅d'
'tap'
'graphs^_'
'Rel'
'uni^_'
'demisto_'
'cse'
'eto'
'RAN'
'VE\u^_'
'Lines^_'
'CMD^_'
'CURRENT\u^_'
'quet'
'lag_'
'viewer^_'
'spacer^_'
'city\u^_'
'cant'
'adj\u^_'
'rnn\u^_'
'S1'
'BASE^_'
'GUID^_'
'diffs_'
'ao_'
't2'
'cst'
'press_'
'office^_'
'pag'
'220_'
'tutorial^_'
'Moo'
'Band^_'
'0x40_'
'dex^_'
'maybe^_'
'UNKNOWN^_'
'GROUP_'
'Stre'
'AES^_'
'rn_'
'confirm\u^_'
'indexer_'
'Tb'
'Hop^_'
'Rs^_'
'CAA'
'625'
'helper\u^_'
'reload\u^_'
'Ic'
'Eg'
'v∅'
'transactions^_'
'ale^_'
'[('
'corr'
'R2_'
'YU'
'completion_'
'DEL'
'Variable\u^_'
'CAM'
'HTTPS^_'
'<-^_'
'}\u{^_'
'fk^_'
'thr'
'hop^_'
'esp'
'Large^_'
'Jan^_'
'YX^_'
'optionally^_'
'highlight'
'cam^_'
'cot'
'Art'
'Ld'
'Az'
'columns\u^_'
')"^_'
'"}^_'
'360^_'
'}\\"'
'TTA'
'uts'
'logs'
'CISCO^_'
'rack'
'253_'
'1086^_'
'dataset'
'Xi'
'sent'
'pad'
'apr'
'ASN^_'
'036'
'p∅'
'ire'
'hub'
'arm'
'suite\u^_'
'measurement_'
'regularizer_'
'3000_'
'Templates^_'
'Latitude^_'
'Avg^_'
'detailed^_'
'STOCK\u^_'
'AAAA^_'
'YC'
'ndex_'
'sale^_'
'packets_'
'Good^_'
'particle\u^_'
'tmpfile_'
'feat^_'
'<>'
'Slice^_'
'weekday_'
'alternative^_'
'COM^_'
'vis^_'
'counter'
'blink'
'reorder'
'poss'
'Loop'
'deploy_'
'Independent^_'
'tq'
'bcc'
'migrate^_'
'race^_'
'coefficients^_'
'drv_'
'xp^_'
'Traceback^_'
'ROLE'
'adjust_'
'prior\u^_'
'TON'
'Encoding_'
'logg'
'brief^_'
'MOUSE'
'beta'
'dac'
'jac'
'{})'
'dob'
'ock_'
'uid'
'tic_'
'c3_'
'945'
'Gdk_'
'CLASS\u^_'
'age'
'XB'
'Nl'
'tai'
'ster^_'
'PUSH'
'ul_'
'remainder_'
'lete'
'GAC'
'peaks_'
'ansi'
'ALTER^_'
'dag\u^_'
'audit^_'
'CGA'
'yw'
''[\u\u\uCARET\u\u\u'
'CTT'
'jj'
'choose\u^_'
'u\u\u\u\u\u^_'
'Bet'
'>)'
'.*?'
'tse'
'sym'
'bv_'
'true'
'QT'
'vhd'
'plex'
'fixture^_'
'wei'
'Vs^_'
'overload'
'Ul^_'
'getsize_'
'ish'
'nli'
'opening^_'
'POINT^_'
'signed_'
'tmpl\u^_'
'opl'
'errmsg_'
'mple'
'finger'
'solr^_'
'ICON\u^_'
'254_'
'prog\u^_'
'TCT'
'predicted^_'
'MANAGER'
'"\\''
'shapes^_'
'Strict^_'
'school^_'
'953'
'SEQ'
'instructions^_'
'black_'
'----'
''∅∅'
'v1'
'virt'
'fold^_'
'RUN\u^_'
'mk\u^_'
'docstring_'
'ADMIN\u^_'
'wide^_'
'ccd'
'stretch'
'jump^_'
'ents_'
'Const^_'
't3_'
'rotate\u^_'
'bill^_'
'0.52'
'need'
'mainloop_'
'Double_'
'Ast'
')='
'equation^_'
'bag'
'Browser_'
'Pn'
'ACL^_'
'un'
'Coordinate^_'
'Computes^_'
'geta'
'signals^_'
'100._'
'anno'
'NEXT'
'Fc'
'GPU^_'
''*'
'bitcoin'
'roman'
'Glu'
'DX'
'cancel'
'vpn^_'
'restriction^_'
'ipo'
'serialized^_'
'broadcast\u^_'
'modification^_'
'Lv'
'cdi'
'into\u^_'
'UNKNOWN_'
'distinct_'
'accepts^_'
'lines'
'asc^_'
'EXT'
'iq'
'Use_'
'refer^_'
'e-1'
'automatic^_'
'3.7'
'pants_'
'ded^_'
'nid_'
'confidence^_'
'###^_'
'ZONE_'
'entre'
'z'
'contra'
'translator_'
'embedded^_'
'Dat'
'SF^_'
'month'
'0.94'
'ume'
'chmod_'
'csrf^_'
'Side_'
'FX'
'jobs\u^_'
'PLE'
'GCT'
'pp\u^_'
'listeners_'
'234^_'
'HR^_'
'pyv'
'INA'
'∅∅∅∅∅∅∅∅∅∅∅∅∅∅^_'
'nal^_'
'fw\u^_'
'LAS'
'R1_'
'Hm'
'"\\""_'
'%"_'
'FQ'
'unknown_'
'coefficient^_'
'pyd'
'psi^_'
'Ind'
'ICE'
'9999_'
'tori'
'035'
'vocab^_'
'repositories^_'
'dor^_'
'come'
'ENABLED_'
'archi'
'Vp'
'They^_'
'961'
'hot_'
'dad'
'PROC'
'Bc'
'Rank^_'
'Enter'
'e1'
'JP'
'spin_'
'hil'
'Parse_'
'mn_'
'dbf'
'Vc'
'flash'
'arb'
'Saint^_'
'Ny'
'wiz'
'consider^_'
'dop'
'translations_'
'Flash^_'
'duplicates_'
'Relation^_'
'tty^_'
'onto^_'
'Unary^_'
'<!--^_'
'browse^_'
'amazonaws^_'
'dispatch\u^_'
'bd_'
'Bro'
'Strategy_'
'al'
'a5'
'dom\u^_'
'32.'
'CARET\u\u\u'
'mz'
'children\u^_'
'TREE'
'radio'
'Mont'
'fast_'
'slots^_'
'pye'
'jack'
'datastore\u^_'
'protect'
'rime'
'!!!'
'Tang'
'mn^_'
'Mu^_'
'ty\u^_'
'EQ^_'
'orm'
'chan^_'
'tick'
'retr'
'Unit'
'magnet'
'overs'
'nes^_'
'race_'
'Coa'
'EPS'
'nfig_'
'MOVE'
'SSL_'
'minus^_'
'rte'
'nic_'
'chk'
'ima'
'heatmap'
'0.95_'
'talk^_'
'Bottom^_'
'rz'
'Removes^_'
'ont'
'mixer_'
'lift'
'o2_'
'vma'
'unta'
'NER'
'receiver^_'
'expl'
'Wait_'
'response'
'recipients_'
'MAV^_'
'0.62'
'012^_'
'rela'
'bond\u^_'
'pea'
'detector^_'
'>/<^_'
'lev'
'support\u^_'
'Changes^_'
'066'
'minidom_'
'alter'
'mic'
'command'
'socks'
'randomize'
'///^_'
'screen'
'uy'
'occurs^_'
'700_'
'"\\"'
'soft^_'
'nor^_'
'computation^_'
'PF^_'
'FORM'
'CLE'
'720^_'
'setmethods\u\u_'
'preferred^_'
'friendly^_'
'swap_'
'Hor'
'kt^_'
'Mg^_'
'footer^_'
'cg^_'
'Share'
'cycle\u^_'
'FOO^_'
'digit_'
'outputs\u^_'
'Flat^_'
'Distribution_'
'\\",^_'
'ENC'
'bytes'
'esti'
'\\''_'
'typedef^_'
'kick'
'xls'
'204^_'
'Pul'
'OK'
'rst_'
'blocks\u^_'
'allocation^_'
'571'
'FLA'
'vc^_'
'subclasses^_'
'OX'
'datapath_'
'Unix^_'
'woman^_'
'bindings^_'
'[''
'AU^_'
'Separator_'
'PAD'
'exam'
'fill'
'/@^_'
'final'
'Defines^_'
'ert^_'
'normalized_'
'grpc_'
'Ma^_'
'Licensed^_'
'LR^_'
'fget_'
'f0_'
'QQ'
'Bi^_'
'encrypt^_'
'catch\u^_'
'zg'
'Name\u_'
'Sco'
'openf'
'0.49'
'mix^_'
'Neighbor^_'
'hl_'
'between_'
'tpr'
'tar\u^_'
'curl^_'
'ACTIVE^_'
'walk\u^_'
'tc\u^_'
'ERT'
'quiz'
'movie'
'qubit'
'Adapter^_'
'gel'
'pil'
'optimization^_'
'28.'
'expt'
'"(('^_'
'your'
'indent\u^_'
'managers_'
'Cou'
'ties^_'
'ilt'
''|'
'removed\u^_'
'Sho'
'Parses^_'
'Blue'
'interpret'
'144_'
'000000'
'perp'
'r2'
'bru'
'til_'
'bid_'
'sw\u^_'
'nh^_'
'D1_'
'enc^_'
'Cel'
'"\\\\"_'
'generated\u^_'
'Refer'
'Esta'
'mpa'
'ova'
'a3'
'jsonutils_'
'immediately^_'
'ction_'
'deep^_'
'jl'
'payment_'
'ave^_'
'Green'
'Bee'
'recv'
'markup^_'
'/+^_'
'caps_'
'voi'
'qn'
'ACCESS^_'
'effects_'
'ec\u^_'
'Done_'
'audit\u^_'
'shrink'
'TN'
'abc'
'1110'
'122_'
'Dependency^_'
':{}'
'times\u^_'
'Managed^_'
'bea'
'zeros^_'
'vartype^_'
'eq\u^_'
'qq'
'ormat_'
'agg_'
'0.92'
'fff'
'"|^_'
'aaaaaaaaaaaaaaa^_'
'constraint\u^_'
'vap'
'SAT'
'cut'
'Arguments_'
'0.58'
'READ^_'
'ust'
'ttr'
'smo'
'gca_'
'timeit_'
'hape_'
'circuit_'
'Strategy^_'
'OUTPUT_'
'night'
'ars_'
'eds'
'Position'
'temperature\u^_'
'Wd'
'Cli'
'remap'
'abort^_'
'belongs^_'
'swe'
'slider_'
'reco'
'agr'
'Hash'
'params'
'abb'
'Recon'
'solid'
'interpolation^_'
'TAG^_'
'Unc'
'lesson'
'edt'
'animation^_'
'sdk\u^_'
'alin'
'north'
'ada^_'
'wifi^_'
'swap\u^_'
'gv'
'mount'
'peak_'
'(.'
'tric'
'HW'
'npr'
'flask^_'
'Pet'
'hack'
'TGC'
'timestamps_'
'Article_'
'CCG'
'TCG'
'vz'
'pref_'
'exe'
'acl'
'Rig'
'y∅'
'VH'
'dbs'
'LANGUAGE\u^_'
'lista_'
'NODE_'
'oba'
'gna'
'yco'
'covar'
''---'
'Sd'
'x'
'Res_'
'Payload_'
'=['
'phrase^_'
'stem'
'Framework^_'
'psf'
'24.'
'leaves_'
'nna'
'grp^_'
'fork'
'collide'
'Extractor^_'
'Phi'
'ARD'
'imread_'
'alls'
'PNG^_'
'many\u^_'
'="%(^_'
'joint\u^_'
'ness\u^_'
'HOME_'
'macro_'
'gist'
'6e'
'Rl'
'serial'
'contract\u^_'
'teams^_'
'Getting^_'
'132_'
'(*'
'Fit_'
'Advanced^_'
'nova\u^_'
'cau'
'FOR\u^_'
'...\\^_'
'RE'
'TAGL_'
'lng_'
'games'
'vl_'
'backs'
'gest'
'gas_'
'COR'
'ram'
'shop'
');'
'suggest'
'overrides^_'
'sun^_'
'redirects_'
'otu'
'AV^_'
'sts_'
'feats_'
'0.54'
'anc'
'Gene'
'warp'
'Fire^_'
'downloader_'
'0.93'
'ack\u^_'
'ofp'
'Ug^_'
'ansible_'
'XC'
'sensors_'
'Permissions^_'
'ents^_'
'darwin^_'
'ac\u^_'
'tut'
'ype\u^_'
'456^_'
'switch'
'Freq^_'
'ile'
'T2_'
'SE\u^_'
'Quick^_'
'shift'
'las'
'functional^_'
'contains\u\u_'
'einsum_'
'paren'
'ZX^_'
'320_'
'h5py_'
'generation_'
'mob'
'zer^_'
'mailto^_'
'+]'
'pl\u^_'
'fb_'
'matrices^_'
'vin^_'
'o'
'bounce'
'formatter^_'
'utils\u^_'
'pyu'
'pe\u^_'
'acct'
'scala'
'ocs'
'relation\u^_'
'suitable^_'
'zlib_'
'Matches_'
'SERVICE^_'
'facecolor_'
'abbrev'
'ath^_'
'INDEX\u^_'
'outp'
'Addon^_'
'{}:^_'
'ped_'
'Zm^_'
'Demo'
'tid'
'MIN^_'
'generates^_'
'dbg_'
'Def'
'het'
'identified^_'
'guide'
');'_'
'bid^_'
'nn\u^_'
'hdf^_'
'And'
'I1'
'Resources_'
'DNA^_'
'Mer'
'ANCE'
'}-'
'myp'
'libvirt^_'
'SEARCH\u^_'
'DATE\u^_'
'heck'
'party\u^_'
'trunk^_'
'gs\u^_'
'/"'
'sens'
'keystone^_'
'964'
'\uCARET\u\u\u'
'AIN'
'unquote_'
'flux\u^_'
'MET'
'lower'
'A3'
'])'_'
'TIM^_'
'Qk^_'
'tech^_'
'1077^_'
'domain'
'bay'
'crash'
'cite'
'analytic'
'applies^_'
'Ex_'
'007^_'
'Gtk^_'
'inserted^_'
'animation_'
'ints^_'
'lvm'
'h2'
'Rai'
'Correct'
'destroy\u^_'
'Bl'
'Logical^_'
'CIM^_'
'votes^_'
'colorbar_'
'github_'
'a3_'
'sketch'
'poli'
'ive'
'Encode^_'
'FL^_'
'VQ'
'4e'
'Signature_'
'DRAW'
'+--------------^_'
'strike'
'awa'
'combine^_'
'667'
'recording^_'
'Wx'
'Cn'
'Gal'
'Expanding_'
'1002'
'fil'
'expiration^_'
'RX^_'
'Cour'
'graphs_'
'00000_'
'BEA'
'106_'
'ydk_'
'Cf'
'Community^_'
'PROTO'
'opponent'
'dial'
'clause^_'
'UID_'
'GG^_'
'Men'
'named'
'EMPTY\u^_'
'subsystem'
'certificate\u^_'
'unpa'
'dao_'
'SW^_'
'impl^_'
'Lib'
'rates^_'
'Distributed^_'
'login'
'YO'
'TAB'
'Gx'
'0.48'
'xy\u^_'
'French^_'
'browser\u^_'
'proxies_'
'pcm'
'symlink_'
'id1_'
'Topology^_'
'Mel'
'Xa'
'nums'
'ident^_'
'TION\u^_'
'YW^_'
'urs'
'nis'
'listi'
'ava'
'DELETE_'
'798'
'Zoom^_'
'GGC'
'TE\u^_'
'corpus\u^_'
'nfo'
'Coords_'
'hic'
'ward^_'
'proto'
'py2'
'San'
'front_'
'annot'
'principal^_'
'BOOT'
'correct'
'LO^_'
'\u('
'+/^_'
'Arch^_'
'hua'
'Stream'
'ud_'
'animal'
'&,^_'
'modname_'
'span\u^_'
'structure\u^_'
'hot\u^_'
'maker_'
'Bou'
'rom^_'
'lan^_'
'phase'
'foot'
'ovi'
'male^_'
'RG^_'
'Three^_'
'volume'
'Thumb'
'Rela'
'pygments\u^_'
'RX'
'Dm'
''∅∅∅∅∅∅^_'
'blank\u^_'
'Question_'
'0.46'
'META_'
'Exp_'
'utc\u^_'
'EVE'
'XX'
'structures^_'
'nder'
'3.5'
'psu'
'matches\u^_'
'chains_'
'orient'
'subscriptions^_'
'stm'
'BASIS^_'
'leader'
'english^_'
'spy'
'rot\u^_'
':=^_'
'Mgr_'
'sdk^_'
'sas'
'week'
'0100'
'lose'
'holidays_'
'alu'
'cnt'
'Contact_'
'Og'
'filem'
'bond'
'40.'
'650'
'mpd'
'strs_'
'scraped'
'MK'
'Alchemy^_'
'battle'
'eck'
'ees'
'abo'
'highest^_'
'Mea'
'MQ^_'
'KB'
'DI^_'
'480'
'quotes^_'
'};'
'tls^_'
'email\u\u_'
'963'
'kde'
'"}"_'
'ne'
'excinfo_'
'aim'
'throw^_'
'tan^_'
'egg'
'>&^_'
'Cert^_'
'dbc'
'constr'
'rta'
'operands_'
'identifiers^_'
'DIFF'
'whitespace_'
'9633^_'
'Numpy^_'
'Miss'
'elt'
'333_'
'1e-5_'
'|('
'uint'
'ONLY^_'
'heading^_'
'DWORD_'
'argsort_'
'Theme^_'
'lav'
'fa_'
'sect'
'eca'
'deviation^_'
'ude'
'bos'
'Updating^_'
'userid^_'
'Vertex_'
'FV'
'sound'
'+)/^_'
'truth_'
'istr'
'Price_'
'Dam'
'Vrf^_'
'rna'
'PARAM\u^_'
'prefix'
'-----------^_'
'TEMP'
')"'
'cing^_'
'Head'
'Decoder_'
'miss'
'handle'
'unset^_'
'unse'
'contact'
'Started^_'
'finalize'
'Ski'
'getb'
'Help_'
'speech^_'
'watch\u^_'
'moment^_'
'lia'
'Vel'
'LINK\u^_'
'loan'
'Scenario^_'
'Provision'
'ORT'
'Dur'
'Comp^_'
'ive_'
'Af^_'
'qui'
'libt'
'GER'
'store'
'ano^_'
'0.003'
'mble'
'Ubuntu^_'
'ino'
'Pt_'
'export'
'glade'
'CONTENT\u^_'
'iel'
'ect_'
'docker_'
'evaluation_'
'233^_'
'Jobs^_'
'z1_'
'124^_'
'certs_'
'soft\u^_'
'avi'
'hange'
'fish'
'evo'
''''\\^_'
'ula'
'deliver'
'()`^_'
'WC'
'ACH'
'10'
'vcf\u^_'
'aria'
'workbook_'
'futures_'
'shop^_'
'place'
'span'
'nome_'
'hei'
'pyco'
'attribs_'
'relative_'
'omi'
'NJ'
'Vb'
'club'
'icons_'
'OD^_'
'CAD_'
'typ'
'tn^_'
'Tal'
'mina'
'Sli'
'3.6'
'Exists^_'
'dispatch^_'
'unin'
'priv'
'777'
'routers_'
'29.'
'Nan'
'Light'
'Ou'
'Der'
'sst'
'contour_'
'Attachment^_'
'eld_'
'arm_'
'Year_'
'ils_'
'3d'
'rma'
'cms'
'":['
'Fore_'
'detector_'
'ivi'
'assignments_'
'ARCH'
'tested^_'
'Journal^_'
'`.'
'FUNCTION\u^_'
'SHO'
'geocode'
'Se^_'
'49.'
'0.87'
'cpus_'
'mother'
'Ethernet^_'
'130^_'
'xk'
'ens^_'
'buffers_'
'artifact_'
'strain'
''{'
'cold'
'0.51'
'ga_'
'0.47'
'$)'
'death'
'guest\u^_'
'Manual^_'
'jet'
'conversion_'
'CENTER_'
'mix'
'cpa'
'middle_'
'Reply_'
'###'
'Extract'
''='
'DQ'
'more_'
'svn_'
'Saving^_'
'zones^_'
'lags_'
'updater_'
'PARSE'
'rooms_'
'ppa'
'Assignment^_'
'tma'
'trials_'
'ran^_'
'ang_'
'mc\u^_'
'vcf^_'
'0123456789^_'
',''
'species\u^_'
'ement^_'
'linux\u^_'
'goto^_'
'SENT'
'Src^_'
'Rd'
'Hardware^_'
'north^_'
'COL\u^_'
'Feed_'
'FLOAT_'
'mean'
'Rectangle_'
'Classes_'
'hbox'
'RGB_'
'Ship'
'poly\u^_'
'Xf'
'osh'
'NL^_'
'CLASS^_'
'blacklist_'
'style'
'dimer^_'
'unload'
'asm^_'
'ways^_'
'Uri_'
'TRACE'
'.*"_'
'Long_'
'replacement^_'
'Slider_'
'csr'
'functions\u^_'
'bandwidth^_'
'Rn'
'WEIGHT'
'REPORT'
'transformer_'
'Party^_'
'Indicator^_'
'populate^_'
'datafile_'
'Strings^_'
'mber^_'
'neuro'
'optim'
'cid^_'
'Fd'
'materials_'
'<='
'illa'
'verse'
'contract^_'
'transparent^_'
'formatter\u^_'
'independent^_'
'hat^_'
'ogr_'
'ADDON'
'gate_'
'swap'
'so\u^_'
'Handles^_'
'ok\u_'
'IW'
'pow'
'Stand'
'fails_'
'NODE^_'
'outline^_'
'lex_'
'0.45'
'\\'%^_'
'Welcome^_'
'ground'
'descriptor\u^_'
'ISO'
'Btn_'
'QM'
'REF'
'org'
'loads^_'
'3.5_'
'vc_'
'models\u^_'
'Whe'
')'''_'
'ngs^_'
'rag'
'defining^_'
'Cont'
'Lam'
'255.0_'
'upgrade'
'decoded\u^_'
'094'
'osp'
'offset'
'authenticated^_'
'/''
'controlled^_'
'BODY'
'SDK^_'
'FW'
'tqdm_'
'FILTER^_'
'ends'
'Turn'
'serve\u^_'
'reli'
'LH'
'cou'
'damage^_'
'GTT'
'Bs^_'
'lot'
'ged^_'
'pyx'
'Event'
'Easy^_'
'kmer'
'Turn^_'
'summarize'
'junction'
'renew'
'noe'
'∅∅∅∅∅∅∅∅∅'
'classification_'
'multiline'
'anon^_'
'Coord^_'
'programme'
'phy'
'Vu'
'0x03'
'pti'
'FIX'
'Tl'
'vt^_'
'character\u^_'
'pypi^_'
'HY'
'pipe\u^_'
'prepend'
'compatibility^_'
'wide'
'neighbor_'
'messages\u^_'
'plus\u^_'
'limitations^_'
'Camera_'
'USD^_'
'avg'
'108^_'
'aw_'
'Native^_'
'recv^_'
'id2_'
'icmp'
'egg^_'
'smart^_'
'depends_'
'ool_'
'dav'
'Alt'
'Upper^_'
'``\u\u^_'
'opera'
'Usage_'
'etag^_'
'csp'
'tube'
'Lj^_'
'basis\u^_'
'secure\u^_'
'fade'
'Mass^_'
'HAS'
'Ph'
'ami^_'
'spin'
'dm\u^_'
'cover_'
'Lm^_'
'NH'
'fleet'
'delivery^_'
'Ticket^_'
'SCAN'
'vnf'
'syslog_'
'}''
'Bound^_'
'/>'
'pars'
'Repo_'
'maxd'
'READ_'
'Future^_'
'cisco\u^_'
'1011'
'Transition^_'
'Modul'
'scaled^_'
'lti'
'ctl_'
'fieldnames_'
'Star^_'
'templ'
'Plus^_'
'Indi'
'9.0_'
'AQ'
'deferred_'
'Trie'
'getl'
'dco'
'Fore'
'Ran'
'imdb^_'
'VERBOSE_'
'IMPL'
'middleware_'
'Aa^_'
'mutate'
'Func'
'ATION_'
'tier_'
'hh^_'
'ong^_'
'cation^_'
'WRITE_'
'DOM^_'
'Buttons_'
'skew'
'arn^_'
'qname_'
'bug\u^_'
'1999^_'
'scap'
'Sil'
'agents^_'
'intensity^_'
'hostgroup'
'ship'
'piece^_'
'"%"_'
'dul'
'EP^_'
'ROLE\u^_'
'enter'
'adjust^_'
'nea'
'NOTE'
'agi'
'mav'
'BLACK_'
'Division^_'
'ipp'
'\u.^_'
'QUERY\u^_'
'bio^_'
'ncols_'
'3f'
'IR_'
'INTERVAL_'
'reset'
'pools^_'
'Bt'
'CHI'
'didn^_'
'81.0_'
'BOUND'
'music'
'cue'
'xdata_'
'Select'
'playing^_'
'Sou'
'SHORT'
'filtr'
'Rating^_'
'WT'
'zfill_'
'sdf'
'Xb'
'dof'
'sis'
'sigma'
'Locator_'
'coo'
'Ig^_'
'udo'
'links\u^_'
'ken^_'
'Line'
'Corr'
'pubkey_'
'gn^_'
'cx^_'
'Oe'
'OC^_'
'dq'
'Strings_'
'province^_'
'carry'
'enforce'
'bbox^_'
'flows_'
'extend'
'databases^_'
'SION'
'retries^_'
'Rich^_'
'filename'
'0x02'
'---------^_'
'"["_'
'IB^_'
'cutoff^_'
'80.0_'
'aligned^_'
'SHA'
'distribute^_'
'Tile_'
'Dic'
'Qg^_'
'permanent'
'launch'
'Eli'
'reserve'
'hdl'
'starttime_'
'*?'
'NW'
'BOOL_'
'season\u^_'
'polar'
'Links_'
'cvs'
'Win_'
'twist'
'tiles^_'
'PUBLIC^_'
'Std'
'marker'
'Rob'
'Img^_'
'severity^_'
'oci'
'ito'
'Spacing_'
'0.57'
'indirect'
'enter\u^_'
'Pp'
'ley^_'
'INCLUDE'
'Chain_'
'Beam^_'
'wl_'
'rese'
'nma'
'etcd'
'ervice'
'sts^_'
'preferences^_'
'EXPECTED\u^_'
'naive'
'ghost'
'Norm^_'
'zx'
'Resolution^_'
'decode'
'RN^_'
'Optimizer_'
'rex'
'getc'
'135_'
'prob'
'effective^_'
'212^_'
'subtype^_'
'Mon^_'
'mur'
'conference^_'
'lid'
'Route'
'Pw'
'whi'
'protocols_'
'even'
'u\u\uCARET\u\u\u'
'BOOK'
'ped'
'cht'
'experimental^_'
'cia^_'
'los'
'vpc\u^_'
'radio_'
'Act'
'ory^_'
'B2'
'						^_'
'aid^_'
'[--^_'
'study^_'
'rval_'
'pseudo'
'bom'
'Pub^_'
'absent^_'
'subdir^_'
'ecu'
'deli'
'distr'
'Rules_'
'usi'
'fanart^_'
'ree^_'
'2t'
'queue'
'tiny'
'linked\u^_'
'decl'
'testa'
'gett'
'association^_'
'0.56'
'Call'
'ura^_'
'combine_'
'Md'
'Dri'
'vbox'
'hold_'
'Ly'
'Capture^_'
'gfile_'
'wheel^_'
'ition'
'bootstrap_'
'170_'
'roo'
'ntu'
'rpt'
'agent'
'Land'
'Team_'
'repro'
'Vol'
'STOP_'
'}/'
'mouse_'
'ample'
'buy^_'
'elapsed^_'
'Xu'
'anonymous^_'
'file1_'
'Mix'
'advertise'
'targ'
'division^_'
'0.53'
'lz'
'pent'
'Removing^_'
'dv^_'
'GIT'
'nz_'
'pn_'
'Float'
'ott'
'Ne^_'
'couple'
'VEN'
'deletion^_'
'840^_'
'tec'
'interrupt'
'brain'
'nginx^_'
'Gamma^_'
'Prep'
'episodes^_'
'Gr'
'';'
'oce'
'psutil_'
'.<^_'
'Micro'
'percentile_'
'Que'
'sbin^_'
'mai'
'farm'
'Y3_'
'0e'
'Integrity^_'
'Blob^_'
'31.'
'receiving^_'
'mpl\u^_'
'Student^_'
'Le^_'
'rail'
'42.'
'875'
'ther^_'
'resolved^_'
'aire'
'401^_'
'+['
'kodi'
'Grpc^_'
'203^_'
'reminder'
'aid'
'ban^_'
'calc'
'phon'
'inherit^_'
'Ah'
'2003^_'
'descr^_'
'Fn'
'pickle\u^_'
'wake'
'sie'
'>('
':('
'SSI^_'
'030^_'
'outcome_'
'lattice_'
'SPA'
'OS\u^_'
'paste^_'
'syntaxobject_'
'FIND'
'idc'
'asin'
'CLA'
'Previous^_'
'GGG'
'Fri'
'1e-'
'usera'
'occur'
'iy'
'icat'
'ords_'
'nome^_'
'connecting^_'
'momentum_'
'fpr'
'download'
'Yo'
'easy'
'ddi'
'friends^_'
'Project'
'varchar^_'
'guild_'
'ROC'
'credential^_'
'equip'
'providing^_'
'writelines_'
'bump'
'lar^_'
'oauth2'
'Rd^_'
'Proc^_'
'answer'
'powers'
'macros_'
'd1'
'P1_'
'mind'
''\u\u\uCARET\u\u\u['
'ARA'
'106^_'
'ris^_'
'ade^_'
'trust'
'due'
'dfs_'
'argparser_'
'tod'
'Calc^_'
'wallet^_'
'keyc'
'document'
'filet'
'svn\u^_'
'meters^_'
'cpp'
'PROJECT^_'
'sad'
'Sun^_'
'Nova^_'
'Calculates^_'
'refine'
'urn_'
'halt'
'ARB^_'
'ncolor^_'
'hy^_'
'activities^_'
':*'
'publication^_'
'record'
'cup'
'Connect_'
'E'
'210_'
'obtained^_'
'enhance'
'}}}'
'ligand'
''~^_'
'lyr_'
'starts_'
'procs_'
'asynchronously^_'
'[\u\u\uCARET\u\u\u\'
'Vn'
'HG'
'fallback^_'
'lvl_'
'Cam'
'g∅'
'reward^_'
'lk^_'
'specifier'
'inter^_'
'scl'
'registration_'
'java'
'lamp'
'tran'
'ense'
'mam'
'flush\u^_'
'uploads^_'
'uname_'
'invoke^_'
'dp\u^_'
'canonical\u^_'
'vert_'
'uch'
'nno'
'ICM'
'+)\\'
'CDF^_'
'00001'
'Exc'
'subj'
'OBJECT\u^_'
'kid'
'tot^_'
'wish^_'
'86.0_'
'tcl'
'floats^_'
'Ascii^_'
'DER'
'valor_'
'Lat'
'AUTHOR'
'LX'
'0x80'
'intervals^_'
'editor\u^_'
'Peak^_'
'D2_'
'wb_'
'0x04_'
'stations_'
'scaffold'
'gat'
'fan^_'
'nem'
'Edit\u^_'
'tail'
'Vd'
'Bla'
'pokemon'
'fname\u^_'
'MESSAGE^_'
'prep'
'delimiter^_'
'Mul'
'Cancel'
'headline'
'failures^_'
'fee_'
'cpu'
'coords\u^_'
'Esc'
'=.'
'winner_'
'combine\u^_'
'ect^_'
'"{{^_'
'determine\u^_'
'chapter^_'
'Plat'
'repeat\u^_'
'jquery^_'
'999'
'Tokens_'
'Qos^_'
'life'
'chn'
'zs_'
'repl_'
'BU'
'role'
'Utility^_'
'Item'
'vre'
'Hd'
'Fact'
'subtitle_'
'Rows^_'
'pn^_'
'wed'
'Typed^_'
'lea'
'partner_'
'ij^_'
'stddev_'
'sq^_'
'deps^_'
'billing^_'
'Measure^_'
'keystone_'
'Ln'
'wat'
'lengths^_'
'distinct^_'
'eight'
'dense_'
'FY'
'170^_'
'ndo^_'
'0.78'
'180.0_'
''(\\^_'
'list1_'
')),^_'
'WP^_'
'TITLE_'
'patcher_'
'wap'
'bucket'
'PAN'
'transp'
'reconstruct'
'delim'
'∅e'
'ENT'
'opc'
'music_'
'tica'
'Accept'
'tokens\u^_'
'drag^_'
'DATETIME'
'deactivate'
'uniq'
'hro'
'und_'
'0004'
'";'
'th∅'
'registered\u^_'
'hat'
'jit_'
'Xp'
'FORCE'
'broker^_'
'tle^_'
'Allows^_'
'rum'
'CREATE\u^_'
'Arm'
'pro^_'
'spd'
'cosmo'
'640_'
'Iso'
'KU'
'edited^_'
'sau'
'macs'
'osa'
'Rm'
'csc'
'unread'
'Qt'
'GGT'
'221^_'
'Learning^_'
'fly'
'editing^_'
'edia'
'yang^_'
'sequence'
'ource_'
'eit'
'bil'
'rsc'
'LG'
')''
'RIT'
'follow'
'YT'
'Test\u^_'
'COMMIT'
'pan^_'
'ols_'
'bam'
'traceback^_'
'stored\u^_'
'xlarge^_'
'molecule^_'
'pf^_'
'solve\u^_'
'problems_'
'RY'
'flag'
'DISP'
'chs'
'/\\'
'ror_'
'leading^_'
'0.67'
'Deleting^_'
'BRA'
'sky^_'
'journal\u^_'
'subv'
'ute^_'
'Js'
'Proto'
'Classes^_'
'SOURCE^_'
'nym'
'king'
'TY^_'
'B'
'trg'
'ERE'
'PARENT'
'RESULTS'
'uct_'
'Utils^_'
'osm'
'lei'
'answers^_'
'Gre'
'lin_'
'vy'
'ORA'
'tox'
'Success_'
'inn'
'loo'
'trainer_'
'accepted_'
'SCRIPT\u^_'
'odd'
'DEV'
'subst'
'tep'
''--------------^_'
'dropout^_'
'ipt'
'720'
'tokenize'
'F1'
'psp'
'gos'
'pic_'
'pdb'
'dock^_'
'break\u^_'
'Merc'
'Cached^_'
'f0'
'∅i^_'
'registration\u^_'
'similarity^_'
'sell'
'overlay^_'
'cu^_'
'Printer_'
'tw_'
'0.61'
'ADDR'
'reader\u^_'
'mins'
'letter\u^_'
''?'
'DED'
'stderr\u^_'
'phys'
'prof_'
'offline^_'
'lie'
'ipv6_'
'fitness_'
'spacing^_'
'UE^_'
'Ie^_'
'pex'
',}'
'XY^_'
'coordinate_'
'Cart'
'pt3dadd_'
'procedure^_'
'bs\u^_'
'meth_'
'041^_'
'DAT'
'Cons'
'COMPRESS'
'Depth_'
'whatever^_'
'bei'
'reo'
'jo^_'
'filer'
'E1_'
'Aux'
'9999^_'
'ling_'
'?('
'Jiangsu^_'
'GTA'
'NIC'
'0.86'
'tos^_'
'Obs'
'0x0000000'
'Logs^_'
'9e'
'wis'
'spawn^_'
'oro'
'Tim'
'pressure_'
'gamma\u^_'
'Major^_'
'109^_'
'Raised^_'
'tender\u^_'
'lor'
'e3_'
'bai'
'Entries_'
'113_'
'BIT'
'$$'
'kol'
'861'
'wiki\u^_'
'FIELD_'
'Dimension^_'
'Fast'
'mand'
'ranks_'
'1e-0'
'tbody^_'
'activate\u^_'
'ADA'
'mach'
'operand_'
'ez^_'
'Sci'
']+^_'
'upstream^_'
'cors'
'aln'
'world'
'nio'
'east'
'vhost'
'ntra'
'uel'
'Enc'
'det^_'
'battle^_'
'earn'
'definition\u^_'
'exercise'
'dell'
'saml'
'bas'
'SUCCESS^_'
'cbo'
'1900'
'timeline_'
'location'
'r0_'
'goes^_'
'geno'
'memo_'
'predicted\u^_'
'window'
'Upgrade^_'
'gur'
'Ka^_'
'Base\u^_'
'fine^_'
'agreed^_'
'Delta_'
'0.88'
'arglist_'
'ug^_'
'Factor'
'NP_'
'isnull_'
'REN'
'DIA'
'2r'
'mv_'
'atte'
'Methods_'
'Impl_'
'DY'
'ient_'
'700^_'
'ting_'
'OBS'
'liste'
'Wl^_'
'conv2d_'
'YB'
'pap'
'Nc'
'Card'
'ctive'
'SAL'
'Dw'
'sion_'
'ely^_'
'reaction_'
'Til'
'ROW'
'+)/$'_'
'USA^_'
'imp'
'prefer'
'mega'
'q'
'assume^_'
'View'
'VS^_'
'Rea'
'listitem_'
'five^_'
'Ring^_'
'exce'
'Conc'
'wc^_'
')?^_'
'4.0'
')`^_'
'encountered^_'
'fall^_'
'"'%^_'
'instant'
'boss'
'People^_'
'0.69'
'/*'_'
'water\u^_'
'unge'
'FACE'
'<<'
'name2_'
'*"'
'else\u^_'
'rpm'
'GCC^_'
'Destroy_'
'CHANGE'
'lai'
'emit^_'
'Clos'
'stopped_'
'Nin'
'sph'
'fj'
'BUTTON'
'Qs'
'VG'
'minimal^_'
'lambda'
'Layers_'
'mig'
'inches_'
'alternate^_'
'Pie'
'>.*)'
'CRA'
'maxl'
'ZS'
'htmlhelp\u^_'
'foreign^_'
'toggle_'
'numeric_'
'oper'
'Union^_'
'DOCUMENT'
'LIN'
'Upload'
'Initializes^_'
'Name'
'Adapt'
'Lo^_'
'Analysis_'
'backward^_'
'qw'
'Existing^_'
'Pad^_'
'referenced^_'
'motion_'
'cus'
'PH^_'
'number'
'36.'
'cook'
'atr'
'persistent^_'
'mbr'
'Pin^_'
'ifn'
'ne\u^_'
'xla'
'shu'
'llo^_'
'Mod'
'UNIT'
'logfile^_'
'snow'
'".'
'omega^_'
'expanded^_'
'exif'
'nickname^_'
'ature'
'***^_'
'occur^_'
'appears^_'
'shoot'
'Nh'
'Nb^_'
'datatype^_'
'Ei'
'enc'
'jar'
'raster^_'
'Graph'
'gdb_'
'2d\u^_'
'changing^_'
'cai'
'QP'
'Qm'
'Classification^_'
'interest'
'hypervisor'
'Collector_'
'60.0_'
'rq'
'dbo_'
'announce'
'Datas'
'Sf'
'ethernet^_'
'floatingip'
'Tracker^_'
'LIGHT'
'Padding^_'
'Bits^_'
'Dict'
'qty^_'
'nstr'
'Ipv6^_'
'Ap^_'
'ece'
'Greater^_'
'indx_'
'Audit^_'
'chin'
'inactive^_'
'\u\u\uCARET\u\u\u{'
'(%'
'Attach^_'
'Order'
'tender'
'proper'
'minima'
'increase^_'
'SQL'
'Ltd^_'
'Conversion^_'
'2002^_'
'Tea'
''∅∅∅∅∅∅∅∅'_'
'ber_'
'RQ'
'zad'
'ql_'
'107^_'
'Cat^_'
'dif'
'female^_'
'comps_'
'Tho'
'Sprite_'
'pod\u^_'
'cba'
'0.64'
'radar'
'challenge_'
'Acc'
''/'
'wave'
'Quote'
'isk'
''\\"'
'xli'
'nick'
'jin'
'iam'
'dft^_'
'],[^_'
'EQUAL'
'tensorflow\u^_'
'keras\u^_'
'WN'
'Ev'
'uild'
'/.'
'(*)^_'
'ette'
'graphy^_'
'Im^_'
'ta\u^_'
'lass^_'
'Sk'
'square\u^_'
'npo'
'Alignment^_'
'0.89'
'prof'
'FAIL'
'trainable_'
'wallet\u^_'
'BAM'
'secret'
'Guide^_'
'wid'
'ons\u^_'
'tiv'
'atch'
'tw^_'
'pref'
'Percent^_'
'propagate^_'
'GG'
'CHECK'
'pq'
'ide_'
'insi'
'ago^_'
'webapp2_'
':\\'
'Wrap^_'
'drift'
'EN_'
'YL'
'Ten'
'newco'
'dia^_'
'Fourier^_'
'trim^_'
'cib'
'Xs'
'oneofs_'
'inverse_'
'preference^_'
'displacement'
'ev\u^_'
'aph'
'DIRECTORY_'
'MIN_'
'MER'
'hare'
'ERS_'
'Disabled^_'
'pk\u^_'
'Free'
'tum'
'press'
'line2_'
'elev'
'116_'
'Unp'
'future\u^_'
'`\u^_'
'treated^_'
'nou'
'MX^_'
'thes'
'[.'
'ipaddress_'
'flags\u^_'
'CALL'
'enter_'
'HF'
'inu'
'Null_'
'rtr'
'overall^_'
'ring\u^_'
'pformat_'
'meter_'
'ADDRESS_'
'tes_'
'OWNER'
'possibly^_'
'elevat'
'Pacific^_'
'coll'
'M∅'
'tolerance^_'
'Pr^_'
'Effect^_'
'SEL'
'ync^_'
'200000'
'rst'
'Total_'
'Radius_'
'resa'
'REF^_'
'black'
'Hs'
'gid'
'variants^_'
'paragraph_'
'dialog'
'0.72'
'ORIGIN'
'shorten'
'regi'
'rent'
'Finished_'
'social'
'Wu'
']}^_'
'LAYER'
'Just^_'
'bundle'
'ional^_'
'Para'
'Ev^_'
'Blank^_'
'016^_'
'ideal'
'onv'
'RU^_'
'attachment\u^_'
'-('
':]'
'ett'
'ean_'
'analyzer_'
'caus'
'air\u^_'
'bond_'
'concept^_'
'L1_'
'ADV'
'Arrow^_'
'agg\u^_'
'jv'
'Tab'
'SYM'
'migrate_'
'P3'
'Deprecated^_'
'Disco'
'e-'
'NB^_'
'AIR'
'ler_'
'prn'
'eci'
'slip'
'Tracker_'
'hadoop^_'
'css'
'Mark'
'fm^_'
'fluid'
'sink^_'
'micros'
'bon'
'explore'
'cor'
'Top_'
'azimuth'
'append'
'tia'
'namelist_'
'egi'
'Metric_'
'Tur'
'pj'
'sage'
'ONLY_'
'entity'
'Online^_'
'E1'
'simp'
'journal'
'outline_'
'decision^_'
'offer^_'
'LB^_'
'L2_'
'Fib'
'sam^_'
'ocr'
'Critical^_'
'Bg'
'0.95'
'+?'
'computation'
'FI^_'
'135^_'
'Voice^_'
'digital^_'
'AX^_'
'astropy_'
'dz^_'
'sock'
'Fixed_'
'Album^_'
'Gree'
'|\u'
'NY'
'trajectory^_'
'boto'
'actions\u^_'
'Ry'
'b1'
'PROP\u^_'
'CF\u^_'
'pull_'
'V1_'
'bootstrap\u^_'
'225^_'
'trim\u^_'
'bridge\u^_'
'wor'
'entropy^_'
'Terminal^_'
'+('
'Clock^_'
'LIST'
'heli'
'nest'
'gree'
'Kal'
''!='_'
'sld'
'pane_'
'3000^_'
'validated\u^_'
'highlight_'
'FLOAT^_'
'0.0001_'
'since\u^_'
'ann_'
'HAS\u^_'
'h∅'
'ADD\u^_'
'facts^_'
'discard_'
'erver_'
'ci\u^_'
'rtt'
'eris'
'noa'
'holds^_'
'typically^_'
'900^_'
'where'
'nav_'
'positional^_'
'Swa'
'led\u^_'
'verified^_'
'Sound_'
'Times^_'
'POL'
'Mas'
'datac'
'crc'
'celery_'
'TEXT'
'news_'
'eur^_'
'attempt_'
'sex^_'
'borrow'
'Bits_'
'rtc'
'Poll'
'Serial_'
'cookies^_'
'Boot^_'
'ACTIVE_'
'bel'
'ymm'
')))^_'
'quick'
'Sb'
'044^_'
'verbosity^_'
'stub^_'
'snippet^_'
'persons^_'
'Gs^_'
'identical^_'
'Campaign^_'
'closing^_'
'boundaries_'
'COMMA'
'Explo'
'avatar_'
'ign^_'
'delegate'
'catch^_'
'KW'
'kz'
'5.1'
'blog_'
'0.68'
'gcode'
'ega'
'ash'
'Step'
'oken'
'hma'
'Quantity^_'
',)'
'stash'
'indic'
'kk_'
'rsa^_'
'End'
'210^_'
'couch'
'T2'
'ISE'
'online_'
'rescale'
'RIGHT^_'
'JOB\u^_'
'Cw'
'CUSTOM'
'Broker^_'
'toy'
'nda'
'countries_'
'bounding\u^_'
'lcd_'
'BASE'
'authenticate^_'
'unp'
'insta'
'AZ'
'345^_'
'dbl'
'cython'
'trust^_'
'Skip_'
'iro'
'tor\u^_'
'RY^_'
'guest'
'orn'
'hw\u^_'
'000001'
'REAL'
'tto'
'auc'
'tsi'
'ily^_'
'([[^_'
'0.71'
'cycles_'
'INPUT_'
'Thi'
'rde'
'Ini'
'omo'
'fst'
'ONE\u^_'
')[^_'
'file\u_'
'biom'
'========='
'services\u^_'
'endo'
'atomic\u^_'
'vac'
'servo'
'party_'
'hell'
'mag\u^_'
'Pon'
'/{}'
'VOLUME\u^_'
'ave_'
'tld'
'Family_'
'correction^_'
'emu'
'Room_'
'EY'
'titles^_'
'too'
'dbo'
'BQ'
'vv'
'branches^_'
'Raw_'
'ige'
''!'
'u∅'
'Mat^_'
'tries^_'
'dsp'
'Zone_'
're'
'pip_'
'EXIST'
'manual\u^_'
'wms'
'units\u^_'
'latex^_'
'xmlrpc'
'coverage\u^_'
'nco'
'+"'
'mongo'
'Traced^_'
'replace'
'Less^_'
'Ari'
'0.73'
'legend\u^_'
'nice^_'
'charm'
'TAR'
'Ia'
'ork'
']*^_'
'PIN'
'BT^_'
'quarter'
'Watch'
'inventory\u^_'
'qualified^_'
'Hon'
'hing'
'adc'
'Anti'
'Entries^_'
'sns_'
'PW'
'Han'
'Noise^_'
'png_'
'ERS'
'Yp'
'tg_'
'dims^_'
'Hit^_'
'Ht'
'ups'
'autos'
'objective\u^_'
'poke'
'chrome^_'
'vnc\u^_'
'validator^_'
'bgp'
'INI'
'flip'
'multipart^_'
'ring'
'preload^_'
'i'
'443^_'
'printable'
'"|'
'defer'
'splitter_'
'["_'
'Greater_'
'jit'
'Ni^_'
'∅k'
'evaluated^_'
'WK'
'Radius^_'
'lm^_'
'GV'
'linesep_'
'alg'
'MW'
'ite'
'('%^_'
'wo^_'
'FF_'
'rsa'
'Market^_'
'geom\u^_'
'embedding_'
'vid^_'
'curs_'
'Open'
'include'
'nik'
''$\\^_'
'pta'
'conve'
'lg_'
'speed'
'datafield^_'
'ctime_'
'sab'
'Login_'
'DOWN^_'
'room'
'nge'
'Xt'
'pressed^_'
'INV'
'213^_'
'sleep'
'iden'
'MASTER'
'yli'
'017^_'
'setp'
'Tp'
'initiate'
'abel_'
'Threshold_'
'222_'
'Wire'
'corre'
'hem'
'tche'
'adds'
'LU^_'
'sqs'
'But^_'
'rim'
'gtk^_'
'coc'
'MO^_'
'kwarg_'
'fonts^_'
'estimated^_'
'XH'
'repr\u^_'
'Gs'
'reporting^_'
'props^_'
'glob^_'
'Memory_'
'xhtml^_'
'stem^_'
'heads^_'
'milestone'
'TG^_'
'Fatal^_'
'CURRENT^_'
'PKG'
'CONDITIONS^_'
'pick\u^_'
'Destroy^_'
'swig_'
'scroll_'
'provision'
'Wan'
'pq_'
'plist_'
'drive\u^_'
'mss'
'giving^_'
'fileo'
'COLL'
'overview^_'
'overridden^_'
'infer\u^_'
'watcher_'
'fresh'
'eer'
'dash^_'
'affect'
'BLUE_'
'upt'
'rendered^_'
'imat'
'Can'
'Reverse^_'
'MULTILINE_'
'Clo'
'itr'
'Absolute^_'
'QW'
'ENV^_'
'lemma'
'rend'
'timespan'
'Pred'
'protection^_'
'myco'
'child\u_'
'Set'
'som'
'operand'
'exchange\u^_'
'Publisher_'
'incl'
'VX'
'Mono'
'ydata_'
'TIME'
'wfile_'
'moon'
'Hl'
'perm\u^_'
'0x100'
'vote'
'tls\u^_'
'Str'
'lf_'
'ssd'
'Join_'
'peptide'
'line1_'
'ILI'
'dedup'
'pct^_'
'Nj^_'
'Hyper'
'shr'
'depend'
'".*'
'cont^_'
'Sea'
'heat_'
'1.3_'
'ubi'
'0.63'
'RATE_'
'>]'
'RS_'
'vd^_'
'acion'
'svg_'
'banner_'
'.+'
'triplet'
'-------------^_'
'username\u^_'
'tier^_'
'0.59'
'large\u^_'
'AGT'
'0.83'
'spr^_'
'h'
'Qua'
'0200'
'QS'
'41.'
'nage'
'prevent^_'
'SEND'
'0x25'
'styles^_'
'vio'
'Gui'
'Design^_'
'pyi'
'about\u^_'
'SMTP^_'
'Js^_'
'rcv'
'tap^_'
'sponsor'
'intent'
'Dem'
'prep\u^_'
'accept'
'Byte_'
'ound'
'inch'
'allocation_'
'VER'
'SYS^_'
'plotting^_'
'endi'
')(?'
'tau\u^_'
'notice_'
'isbn'
'Mib^_'
'ange_'
'teri'
'eap'
'Confirm^_'
'Head_'
'ch∅'
'flattened\u^_'
'Parti'
'way_'
'ube'
'cbb^_'
'ray\u^_'
'Off'
'elapsed\u^_'
'nms'
'googleads^_'
'prep_'
'exclusive^_'
'Tl^_'
'oe^_'
'Yan'
'126_'
'Deletes^_'
'({'
'...,^_'
'doi^_'
'"]/^_'
'insert'
'Elastic^_'
'paths\u^_'
'incorrect'
'governing^_'
'/(^_'
'erl'
'Exiting^_'
'rendering^_'
'vv_'
'Invalid_'
'persona'
'Reb'
'Mod_'
'?:'
'mint'
'half'
'Ai^_'
'rif'
'likely^_'
'gle^_'
'Km'
'['_'
'Dia'
'tu^_'
'closing_'
'diag'
'clothing^_'
'Cloud'
'.*\\'
'Commands^_'
'vx_'
'gaussian^_'
'ung^_'
'heat\u^_'
'252^_'
'QUI'
'Show'
'Ratio_'
'Review'
'scaled\u^_'
'erse'
'WW'
'ATE^_'
'pci\u^_'
'obj1'
'gq'
'take_'
'epochs^_'
'prea'
'dex'
'Nf'
'smt'
'disp'
'utf8_'
'Cap'
'))"_'
'uer'
'availability\u^_'
'\u]'
'yal'
'Ge^_'
'sed_'
'mana'
'@{'
'Subc'
'synchronous^_'
'sib'
'Describe^_'
'uv^_'
'bla^_'
'mie'
'Long'
'STEP'
'broadcast_'
'1111'
'simulation\u^_'
'comic'
'2017_'
'FEED'
'SLI'
'flatten\u^_'
'PACKAGE\u^_'
'sandbox^_'
'DS_'
'243^_'
'expression\u^_'
'Code'
'Stri'
'cyl'
'ical'
'1111^_'
'Research^_'
'affi'
'mux'
'ular'
'Serv'
'Relation_'
'CCC'
'--'_'
'mine'
'identifiers_'
'333^_'
'zap'
'patient^_'
'Hide^_'
'205_'
'VE_'
'Repr'
'State'
'124_'
'bone_'
'!!^_'
'139_'
'tpa'
'latency^_'
'Feed'
'azi'
'Ax'
'Episode^_'
'jg'
'scraper'
'If'
'0x800'
'anci'
'JW'
'h2o_'
'recognize'
'Vk^_'
'reboot^_'
'nose^_'
'tray'
'metro'
'Times_'
'Quest'
'GY'
'Compress'
'sanitize\u^_'
'isr'
'\u\u\u\u_'
'xer'
'ecl'
'doctype_'
'Xl'
'shelf'
'lx'
'AMP'
'38.'
'lop'
'keras^_'
'dup'
'measure\u^_'
'lens_'
'a4'
'yticks_'
'Restore^_'
'Diag'
'Windows_'
'Determine^_'
'XR'
'()\\^_'
'For_'
'membership_'
'DRIVER'
'ron^_'
'KET'
'"\\"^_'
'Cc^_'
'ARG^_'
'fsp'
'affiliation'
'arn'
'alloc_'
'tens'
'spawn\u^_'
'EXAMPLE'
'Mg'
'subscribe^_'
'lsp'
'invite'
'fx^_'
'Digital^_'
'Children^_'
'coordinator'
'ZG^_'
'Prepare^_'
'QB'
'EU^_'
'Hand^_'
'boost^_'
'Inv'
'EPSG^_'
'nano'
'IV^_'
'350_'
'estado'
'TIMES'
'FM^_'
'together_'
'cfm'
'aaa'
'ram\u^_'
'iar'
'iat'
'csi'
'480_'
'machines^_'
'ucs'
'vsp'
'BP^_'
'230_'
'ves^_'
'devs_'
'Ws'
'spatial\u^_'
'cartesian'
'ENTI'
'Sq'
'metal'
'limited^_'
'fq\u^_'
'XG'
'MONGO'
'reduced^_'
'Load'
'qry_'
'pwd^_'
'Echo^_'
'moc'
'Retr'
'Actual^_'
'....'
'LP^_'
'T∅'
'sche'
'0.74'
'posting'
'Scr'
'365_'
'jinja^_'
'RUNNING_'
'usec'
'miner'
'chroot'
'144^_'
'confirmation^_'
'cale_'
'timed'
'mage'
'Random_'
'World_'
'sess'
'iou'
'ctu'
'board'
'Pref'
'Dic_'
'ypt'
'Pages^_'
'109_'
'gpa'
'Jm'
'C0'
'"?'
'rray^_'
'{"_'
'NOW'
'flood'
'Plugins^_'
'GI^_'
'separate'
'repeated^_'
'Combo_'
'.\\'
'DE_'
'Mixin^_'
'types'
'Strip'
'+)?'
'@@'
'cron^_'
'adjust\u^_'
'statuses^_'
'"`^_'
'ned^_'
'enci'
'0.81'
'AT\u^_'
'FALSE^_'
'LIT'
'0.91'
'kra'
'Jy'
'Miscellaneous^_'
'approve'
'Dn'
'General'
'observed^_'
'errors\u^_'
'ppe'
'Lp'
'granted^_'
'Hg^_'
'10001'
'survey_'
'daily\u^_'
'ild'
'PDB^_'
'Probe^_'
'always\u^_'
':)'
'013^_'
'purchase^_'
'alert'
'THI'
'cover\u^_'
'DIST'
'libre'
'slide^_'
'accessible^_'
'esa'
'Ml'
'CONTEXT\u^_'
'mgr^_'
'gl\u^_'
'dei'
'figs'
'eye^_'
'utc'
'httpretty_'
'price'
'FONT'
'whitelist_'
'SER'
'Indices_'
'coerce'
'@%^_'
'Eng'
'subtitle^_'
'fair'
'closest^_'
'attack_'
'tp\u^_'
'schemas_'
'IAN'
'0.00_'
'"?^_'
'jh'
'KF'
'cda'
'ARM'
'113^_'
'parte'
'XML\u^_'
'phe'
'superuser^_'
'OW^_'
'tape'
'N∅'
'expir'
'envi'
'Batch_'
'kor'
'302^_'
'Down'
'Wall^_'
'facility^_'
'compr'
'Feat'
'(\u^_'
'RETURN'
'"[%^_'
'Week'
'TIC'
'Kat'
'P2_'
'ican'
'dbe'
'Pp^_'
'Clear'
'list2_'
'0.84'
'wp_'
'scrapertools_'
'exponent_'
'itor'
'Sel'
'Scaling^_'
'Propagation^_'
'BUFFER\u^_'
'1010'
'preprocess\u^_'
'Ready^_'
'vo_'
'vir^_'
'XK'
'DLL'
'CHANNEL\u^_'
'FLOW'
'Demo^_'
'maxim'
'alb'
'throw'
'ORY'
'oop'
'gad'
'flux'
'Mix^_'
'torch^_'
'equals^_'
'Wh'
'Systems^_'
'Env'
'unh'
'probe\u^_'
'streaming^_'
'torrent_'
'scratch^_'
'lead^_'
'comment'
'Provide^_'
'producto'
'Capabilities^_'
'posterior'
'colored_'
'fld'
'lineno^_'
'bx'
'Pars'
'Resolver_'
'NEW\u^_'
'subnets_'
'cip'
'park'
''&#^_'
'acq'
'KC^_'
'Dd^_'
'MID'
'0.65'
'0x42'
'uci'
'monster'
'cet'
'autof'
'south^_'
'mak'
'Diff'
'c0'
'older^_'
'vg^_'
'regr'
'da\u^_'
'cir'
'Actor^_'
'unwrap'
'member'
'IDD^_'
'Generating^_'
'GGA'
'Alg'
'}-{^_'
'666'
'affected^_'
'MSG^_'
'spir'
'mapper^_'
'outb'
'vault^_'
']''
'Artist^_'
'5.3'
'placed^_'
'bitmap_'
'opene'
'0.77'
'ck\u^_'
'license\u^_'
'inform'
'apikey_'
'HV'
'+00_'
'dz_'
'Proto_'
'AST'
'preprocessing_'
'national'
'ORI'
'COMP'
'tors'
'tooltip^_'
'timer'
'seat'
'qq^_'
'ofp\u^_'
'finished\u^_'
'Received_'
'pco'
'qemu^_'
'extent^_'
'alue_'
'``'^_'
'spend'
'Pun'
'dag^_'
'assi'
'FX^_'
'Cut'
'1s'
'0.85'
'accessed^_'
'nitro'
'loadbalancer'
'Quality_'
'sphere^_'
'multis'
'lam_'
'Headers^_'
'139^_'
'Partial^_'
'Most^_'
'rock'
'Joint^_'
'tend'
'Counting^_'
'rowid'
'mer_'
'Ln^_'
'Bus'
'gy^_'
'DJ'
'nat^_'
'kubernetes^_'
'ytes_'
'abe'
'tell^_'
'RAM^_'
'ENDPOINT_'
'closest\u^_'
'small_'
'mtype_'
'HEAD'
'CASE^_'
'indiv'
'ght_'
'outf_'
'Comm'
'Bw^_'
'rep'
'criterion_'
'sku'
'AVA'
'twitter\u^_'
'copie'
'ERI'
'intra'
'Met'
'0.03_'
'reaction^_'
'Mf'
'rom_'
'argc'
'Ao'
'merge'
'trop'
'Arg'
'timeline^_'
'excluded^_'
'NY^_'
'FS_'
'purposes^_'
'password'
'|%^_'
'jnp_'
'},{^_'
'become^_'
'PN^_'
'sigmoid_'
'ular^_'
'terminal\u^_'
'EXCEPTION'
'xor'
'tam'
'predicate^_'
'Oct'
'CHAR'
'business^_'
'measurements_'
'law'
'Box'
'Activity_'
'nii^_'
'blast'
'slab'
'20000'
'Invoice^_'
'Eg^_'
'tmpl'
'schema'
'deriv'
'mkstemp_'
'Quest^_'
'OFFSET_'
'Fit'
'cce'
'reuse_'
'kur'
'cyr'
'campo'
'getpid_'
'town^_'
'addrs_'
'authentication_'
'gsl'
'x5'
'XY_'
'west'
'predictor'
'Deep^_'
'profit'
'Publish^_'
'yi_'
'operating^_'
'[{'
'Nr'
'HEADER^_'
'LL_'
'pick'
'observation\u^_'
'iba'
'hole^_'
'()}'
'qz'
'lau'
'inverted'
'Which^_'
'solar'
'Hex^_'
'invalidate'
'glyph'
'opacity^_'
'fec'
'Pcap^_'
'keypa'
'"∅∅∅∅∅∅∅∅"_'
'hop'
'i∅n^_'
'oh^_'
'mktime_'
'Hint_'
'totals_'
'foreground^_'
'llo'
'Vy'
'Tit'
'Bitmap^_'
'0x03_'
'trajectory_'
'Problem_'
'Au^_'
'urwid_'
'C2'
'modifi'
'gco'
'forever_'
'terminate^_'
'person'
'V2'
'OTHER'
'subse'
'hur'
'Vals_'
'SPAR'
'detect_'
'Repeat^_'
'KS^_'
'gj'
'POLL'
'');^_'
'loglevel_'
')['
'Dash'
'Cols_'
'40000'
'atlas'
'RULE\u^_'
'Quota^_'
'tyle_'
'retra'
'mode'
'represent_'
'Bug'
'ACK^_'
'autore'
'yer'
'rect\u^_'
'transient'
'>`\u^_'
'texto_'
'YYYY^_'
'0.82'
'plotly'
'Removed^_'
'ADJ'
'h5'
'Completion^_'
'rp\u^_'
'PT\u^_'
'commits_'
'subscriptions_'
'195^_'
'util\u^_'
'commits^_'
'qst'
'legend'
'hdu_'
'pect'
'distribution\u^_'
'j'
'mine^_'
'129^_'
'Round^_'
'Encryption^_'
''@'
'irre'
'ANN'
'scratch'
'Invest'
'users'
'dilation'
'participant_'
'KQ'
'ible_'
'pel'
'fuse'
'ration^_'
'dv_'
'clin'
'Att'
'exploration'
'ORE'
'Clicked_'
'Conv2^_'
'cart^_'
'Fort'
'1e-1'
'BY\u^_'
'Loads^_'
'vv^_'
'donor'
'LINK^_'
'KV'
'194^_'
'const'
'gdaltest_'
'Eval^_'
'POLICY\u^_'
'fied^_'
'comm'
'campaign\u^_'
'}}"_'
'scroll'
'pack'
'Sell'
'invoke\u^_'
'friend^_'
'prima'
'consensus'
'FAIL_'
'Opera'
'$('
'Wind^_'
'Ger'
'0005'
'gtk'
'descriptions_'
'pss'
'fdi'
'Ter'
'}.'
'onte'
'ho_'
'dte'
'az_'
'CODE'
'urf'
'updater'
'permit'
'imap'
'fft\u^_'
'INCLUDING^_'
'obstacle'
'Compile^_'
'd3_'
'crs_'
'190_'
'Abo'
'succeeded^_'
'factory\u^_'
'Paths^_'
'hier'
'\\|'
'restart'
'pnt'
'Cur'
'vecs_'
'DATASET'
'Square^_'
'SE_'
'Embedded^_'
'Mount'
'pretrained'
'Pb^_'
'NG\u^_'
'obsolete'
'vdi'
'emc'
'QG'
'ttl'
'incr'
'vda'
'tipo_'
'exported^_'
'ist'
'van^_'
'compli'
'Fi^_'
'nga'
'm3'
'eric'
'STATI'
'BOARD'
'Router_'
'EXEC'
'operand^_'
'FP^_'
'FULL\u^_'
'Doc'
'encrypted\u^_'
'die_'
'0.76'
'Fd^_'
'harvest'
'devel^_'
'Platform_'
'/></^_'
'dition'
'vj'
'ptype_'
'logp'
'Bgp^_'
'0.00000e+00_'
'MH'
'Activation_'
'maintainer'
'imagen'
'ell_'
'sct'
'lint_'
'gc\u^_'
'sqlalchemy^_'
'secrets_'
'obi'
'Bat'
'nzb'
'corners_'
'openp'
'expire^_'
'aug_'
'PERMISSION'
'passes_'
'addon'
'maps'
'represent'
'EDGE'
'dap'
'Spider_'
'rectangle^_'
'grids'
'Star'
'SUM^_'
'Available_'
'nib'
'Pretty^_'
'SV^_'
'Ew^_'
'Van'
'uss'
'ready\u^_'
'i3'
'grav'
'obe'
'ignored\u^_'
'QO'
'rf\u^_'
'bbb^_'
'costs_'
'egress'
'cam\u^_'
'1085^_'
'QC^_'
'5.0'
'topo_'
'}$'
'Push'
'stride^_'
'withdraw'
'lor_'
'rai'
'Conditional^_'
'0x1D'
'diss'
'ail^_'
'Temp'
'maxp'
'esto'
'SUN'
'Conve'
'ject'
'night^_'
'exit'
'serve^_'
'prox'
'lives'
'length'
'laser'
'hello_'
'=====^_'
'pam'
'strong'
'LW'
'Ss^_'
'rio^_'
'>]^_'
'inspire'
'community_'
'undo^_'
'ssion^_'
'Kon'
'watcher'
'meeting'
'Trait'
'JSON\u^_'
'AO^_'
'probe_'
'cats_'
'Edges_'
'compose^_'
'administrator^_'
'Table'
'2i'
'resi'
'qv'
'jq'
'ability_'
'taking^_'
'herm'
'nam'
'mini^_'
'codec^_'
'chunk'
'arm\u^_'
'consum'
'saved_'
'prints^_'
'histori'
'Amount_'
'Both^_'
'isco'
'gram_'
'ppo'
'passphrase_'
'too\u^_'
'Quit^_'
'ham^_'
'Reject'
'mul^_'
'mouse'
'fld_'
'arg2_'
'Shel'
'Lim'
'mixins_'
'SAMPLE'
'commit'
'holiday'
'electric'
'+0'
'exists\u^_'
'Rg'
'sheet'
'dialect'
'corr\u^_'
'Viewer^_'
'Local_'
'bookmark^_'
'snd\u^_'
'rra'
')``^_'
'hms'
'five'
'weather\u^_'
'quanti'
'\\('
'Shelter^_'
'like'
'via'
'unix\u^_'
'ofi'
'searche'
'p4'
'demi'
'0.004'
'z2_'
'took^_'
'Hr'
'olo'
'tou'
'gio'
'aar'
'Recipe^_'
'}\\\\^_'
'RAS'
'fz'
'Exp'
'thumb'
'>:^_'
'stdcall^_'
'bases^_'
'Encoder^_'
'SUBT'
'Ken'
'subgroup'
'fte'
'scaling_'
'gth'
'inter_'
':.'
'ANSI'
'secs^_'
'noi'
'datetime'
'oper_'
'nsa'
'bkg'
'repr'
'gz'
'GOOD'
'REE'
'IK'
'often^_'
'timestep_'
'Boo'
'p'
'div\u^_'
'ALI'
'"{}"_'
'HT^_'
'pdi'
''"%^_'
'|[^_'
'165_'
'"<"_'
'fma'
'checkbox_'
'b5'
'effective\u^_'
'admins^_'
'ATTR^_'
'cmp^_'
'1e6_'
'ACG'
'rans'
'describe_'
'RAM'
'Cli^_'
'Pitch^_'
'pant'
'completed\u^_'
'smooth_'
'REGEX'
'CONF'
'DEVICE^_'
'117_'
'contour^_'
'2l'
'gw^_'
'virt^_'
'Illegal^_'
'market\u^_'
')))'
'SYS\u^_'
'water'
'PWM'
'Dimension_'
'VAL'
'pte'
'debian^_'
'encryption\u^_'
'RECT'
'strt'
'normalization^_'
'fcn'
'Luc'
'Browse^_'
'scales_'
'RIC'
'locale\u^_'
'10\u^_'
'fem'
'Parent'
'ight'
'gn_'
'zeta'
'CHECK\u^_'
'Gdi^_'
'Currency^_'
'ncode'
'fier'
'Solver_'
'Cru'
'pki'
'oc\u^_'
'(.^_'
'toni'
'00011'
'potential\u^_'
'Lb'
'CASCADE^_'
'mpr'
'Trace_'
'grad'
'ugh'
'libc^_'
'ial_'
'lyr'
'UL^_'
'UB^_'
'art\u^_'
'reason'
'dms'
'Ship^_'
'lol'
'rmat'
'datacenter'
'opacity_'
'Ano'
'AGE^_'
'61.'
'truncate_'
'similarity_'
'myd'
'Fig'
'1300'
'probes'
'poo'
'newf'
'consistent^_'
'0.75'
'solver\u^_'
'ogg^_'
'muc'
'UNT'
'&=_'
'symp'
'Led'
'amin'
'blobs_'
'Uint'
'Normal'
'As_'
'oft'
'9000'
'/>"_'
'subdomain'
'fff^_'
'dend_'
'synset'
'upp'
'Margin^_'
'6._'
'"('^_'
'wall_'
'ves'
'axi'
'wid_'
'glu'
'["'
'Norm_'
'Vec'
'Radio'
'APPL'
'44.'
'reduced\u^_'
'nsh'
'cann'
'Streams^_'
'uq'
'srcdir_'
'sdl'
'Coeff'
'Closed^_'
'utilities^_'
'toks_'
'special'
'vertical\u^_'
'coord'
'decrease'
'Trying^_'
'0x30_'
'ans^_'
'yr'
'tde'
'Rotation^_'
'magnitude_'
'arp'
'114^_'
'intensity_'
'iframe^_'
'nro'
'horizon^_'
'bip'
'hid'
'ensembl'
'baseline\u^_'
'ities^_'
'QUOTE'
'confidence_'
'])('
'ism'
'Props_'
'mute'
'403^_'
'plugintools_'
'them'
'200\u^_'
'IMA'
'xpa'
'nz^_'
'alm'
'mimetypes_'
'infl'
'oauth_'
'Mh'
'inverse\u^_'
'intf_'
'Po^_'
'Middleware_'
'LED^_'
'53.'
'green'
'Affi'
'hull'
'usel'
'expert'
'Tan'
'(?:'
'calibrate'
'Torrent^_'
'Dra'
'Retrieves^_'
'C1_'
'NOTIFICATION'
''""'_'
'bullet'
'vert^_'
'rms'
'cope'
'YG'
'audit'
'zer'
'DIM'
'mid\u^_'
'SYSTEM\u^_'
''(?:'
'milli'
'Th^_'
'mixture'
'Dx^_'
']+)'_'
'Trigger_'
'bow'
'softmax_'
'lable'
'ATA^_'
'communication^_'
'name1_'
'award'
'RUN^_'
'Consumer^_'
'spect'
'inference^_'
'dic\u^_'
'ession'
'FIN'
'resume_'
'Sub_'
'lg^_'
'><'
'Peer'
'container'
'idt'
'IDE'
'ugettext_'
'imagin'
''//'
'quaternion'
'motor\u^_'
'luc'
'fg\u^_'
'codes'
'ant\u^_'
'+/'
'openm'
'panda'
'Sim'
'plain\u^_'
'estimator^_'
'slope^_'
'quotes_'
'Regression^_'
'subjects_'
'Bh'
'snd'
'found'
'sets'
'ee\u^_'
'permutation'
'MAG'
'sched_'
'gno'
'bayes'
'attributes\u^_'
'TH_'
'snap'
'transmit'
'computing^_'
'uac'
'n2'
'msi'
'tj'
':"'
'stn'
'brand^_'
'govern'
'Pix'
'cont\u^_'
'diffs'
'Qi'
'fd\u^_'
'ifo'
'plug'
'idname_'
'gamma'
'omitted^_'
'000000_'
'hydro'
'Ton'
'Models^_'
'minor\u^_'
'ILE^_'
'rov'
'$$^_'
'Rl^_'
'spring'
'Video_'
'5432'
'week\u^_'
'timed^_'
'partitions^_'
'Am^_'
'73.'
'-1'
'rh_'
'West^_'
'listen\u^_'
'Gla'
'weight'
'authorization\u^_'
'literal'
'PRI'
'rose'
'orr'
'npa'
'erp'
'det\u^_'
'Swap^_'
'crash_'
'ACCOUNT\u^_'
'holding^_'
'Ll'
'sym^_'
'localctx_'
'qa^_'
'baseline_'
'Manifest^_'
'Prot'
'numerical^_'
'radius\u^_'
'perf^_'
'ald'
'(\u'
'era^_'
'Indicates^_'
'86136'
'Devices^_'
'onde'
'/>\\^_'
'forecast^_'
'LOCAL^_'
'oor'
'hst'
'goo'
'vir'
'objective_'
'f3_'
'nsion'
'notif'
'Dark^_'
'Execution_'
'gw\u^_'
'PY^_'
'143_'
'clock\u^_'
'ifa'
'Anc'
'-----'
'speak'
'plen'
'eader'
'exist'
'eren'
'Motor^_'
'Cancel_'
'half_'
'CENTER\u^_'
'hab'
'ros^_'
'orbit'
'bili'
'JJ'
'!)'
'different'
'boundary\u^_'
'producer_'
'nonc'
':"^_'
'Heat'
'FULL'
'stc_'
'132^_'
'conflict^_'
'eth\u^_'
'sir'
'tweets^_'
'Forest^_'
'newc'
'Visit'
'0x13'
'Cos'
'}-^_'
'"==============^_'
'nic\u^_'
'MSIE^_'
'20150'
'large'
'MODULE\u^_'
'HG^_'
'triangle^_'
'shp^_'
'Bulk^_'
'Observer_'
'Hat^_'
'temporary\u^_'
'kap'
'getint_'
'QR'
'Exce'
'denominator_'
'sorting^_'
'XM'
'Client'
'section'
'respect^_'
'Band_'
'vendor\u^_'
'grade_'
'nss'
''{}'"_'
'sx^_'
'ks\u^_'
'autodoc^_'
'Denied^_'
'sensor'
'fk'
'scans'
'hashtag'
'gap\u^_'
'D'
'threaded'
'∅re'
'mole'
'Defaults_'
'Iy^_'
'RDF^_'
'Members^_'
'126^_'
'loops_'
'Deg'
'restricted^_'
'glyph_'
'debit'
'ark'
'revoke'
'Ab^_'
'shares_'
'RAD'
'undo'
'authorization_'
'RR^_'
'CACHE_'
'116^_'
'reject^_'
'}`'
'Age'
'85.0_'
'epg'
'island'
'voxel'
'Playlist^_'
'spin\u^_'
'outl'
'Pur'
'117^_'
'iew_'
'Disposition^_'
'ower'
'polynomial^_'
'supplier'
'observations^_'
'Xv'
'stamp^_'
'den_'
'STRE'
'principal'
'ngs'
'rva'
'ior'
'5e'
'TEXTURE\u^_'
'EXTENSION'
'DAY'
'prod\u^_'
'Jy^_'
'ement'
'ctr_'
'airflow_'
'oa^_'
'builtin\u^_'
'ma'
'Big'
'release'
'MAL'
'live_'
'attrib'
'YES^_'
'Submission^_'
'subtitles_'
'88.0_'
')|('
'umi'
'spc'
'∅)'
'bed_'
'0.79'
'ftp_'
'={}"_'
'robot\u^_'
'LEVEL^_'
'Group'
'12.0_'
'sni'
'msa'
'Material_'
'ifc'
'toon'
'analyze^_'
'wiki_'
'tv\u^_'
'Zm'
'UX'
'TOPIC'
'LEN'
'filen'
'gtf'
'GRAPH'
'131_'
'VIEW^_'
'RNN^_'
'",\\^_'
'NO_'
'sy^_'
'aso'
'Visual^_'
'Lm'
'====='
'smp'
'second'
'onal^_'
'Sec'
'cps'
'\u\uCARET\u\u\u\u\u'
'Alloc'
'stars_'
'explain'
'strength_'
'Used_'
'recipient\u^_'
'Creat'
'trunc'
'organisation^_'
'bench^_'
'Nick'
'sd\u^_'
'Sp^_'
'plug^_'
'machine'
'ese^_'
'Fund'
'119^_'
'MEDIA'
'TB^_'
'vcpu'
'lq'
'JN'
'ioc'
'etu'
'deb^_'
'Resize^_'
'HI^_'
'119_'
'picture_'
'graphic'
'E2_'
'COS'
'natural^_'
'terminated^_'
'Inject'
'subi'
'KEYS'
'telnet'
'beg'
'billing\u^_'
'Mos'
'COMMAND_'
'OPEN_'
'ports\u^_'
'newline^_'
'HH'
'thresholds_'
'insertion'
'sete'
'approx_'
'decoded^_'
'asy'
'Pid'
'',''
'latex_'
'+)\\^_'
'211^_'
'unavailable^_'
'm1'
'ramp'
'loggers^_'
'tcp'
'qr_'
'chainer'
'FLO'
'inp\u^_'
'ux'
'Background_'
'015^_'
'ABLE^_'
'sr\u^_'
'direct'
'ipv'
'1090^_'
''[%^_'
'rial'
'preprocess_'
'\\'"'
'just'
'noti'
'indexer'
'deltas_'
'Cab'
'xl^_'
'subco'
'gete'
'olds'
'neighbor\u^_'
'wig'
'TE_'
'softmax^_'
'mins_'
'libr'
'LINK'
'clamp'
'strand'
'pyramid_'
'twitter_'
'preview\u^_'
'ael'
'ORM'
'replicas_'
'plans'
'glyphs_'
'pids_'
'antenna'
'Prov'
'three\u^_'
'RY\u^_'
'isot'
'Grad'
'sko'
'buf\u^_'
'Crypto^_'
'todo\u^_'
'ngin'
'dfa'
'df2_'
'pbs'
'contents\u^_'
'Words^_'
'Prior'
'repa'
'CACHE^_'
'ENE'
'ress^_'
'(<^_'
'registra'
'bugs^_'
'strand^_'
'boy'
'ival'
'Dig'
'twisted^_'
'Bm'
'zulip^_'
'xsi^_'
'+$'
'clang^_'
'p4_'
'matrices_'
'hn^_'
'Trim'
'118_'
'names'
'st2'
'cube\u^_'
'Past'
'Motion^_'
'coe'
'ye^_'
'elasticsearch^_'
'jb'
'Running_'
'RES^_'
'bi_'
'Tel'
'Steps^_'
'PLUGIN\u^_'
'ger_'
'THIS^_'
'Pf'
'4000_'
'suit'
'Expire'
'pulse^_'
'wanted_'
'crc_'
'aper'
'Bounding^_'
'nons'
'rejected^_'
'rang'
'pred'
'residue_'
'ensi'
'activated^_'
'HS^_'
',\\'
'judge'
'clip'
'noo'
'meaning^_'
'edd'
'Cos^_'
'sdc'
'Gf'
'Cent'
'Loaded^_'
'canvas\u^_'
'WARE'
'DIR'
'tart_'
'slides'
'ned'
'Sequential_'
'vil'
':['
'scheduler\u^_'
'Face_'
'lay^_'
'ietf^_'
'Raise^_'
'301^_'
'SWI'
'39.'
'tune'
'RSS^_'
'Assoc'
'zione^_'
'backpage^_'
'Libraries^_'
'Bio^_'
'sde'
'FRAME\u^_'
'CE\u^_'
'white\u^_'
't3'
'placement^_'
'Ro^_'
'Author_'
'translations^_'
'RL^_'
'zy^_'
'traverse'
'0x00000'
'tight\u^_'
'xval'
'k∅'
'Times'
'Parallel^_'
'PAT'
'NUM_'
'Forbidden_'
'hra'
'pyp'
'Example_'
'dou'
'SYSTEM^_'
'Oi^_'
'areas_'
'kpt'
'Hot'
'priority\u^_'
'py3'
'hj'
'sele'
'ccess'
'Of'
'conditional^_'
'RAI'
'BORDER'
'175_'
'encoding\u^_'
'wind\u^_'
'vi_'
'barrier'
'pct_'
'ino^_'
'books_'
'Layers^_'
'Mutable^_'
'Columns^_'
'Agg'
'ini\u^_'
'colours_'
'trailing^_'
'qs^_'
'lldb'
'thu'
'spice'
'mirror\u^_'
'flt'
'initialise'
'collector^_'
'recom'
'odel'
'initializer^_'
'Comments^_'
'2o'
'nets_'
'acceleration'
'ook^_'
'geometry\u^_'
'A2_'
'Tester_'
'``:^_'
'assoc_'
'fsm_'
'measure'
'STU'
'Outputs^_'
'x3'
'states\u^_'
'IDENT'
'Director'
'That_'
'Detect'
'particle_'
'Arc^_'
'compress^_'
'ress'
'inse'
'der\u^_'
'ddl'
'neigh'
'#!'
'locate^_'
'experiments^_'
'ZX'
'cnx_'
'strategy\u^_'
''[?]'_'
'round'
'CT_'
'usb^_'
'Prev'
'REGISTER'
'123456^_'
'Ed^_'
'AUTHORS^_'
'BIDIR_'
'BV'
'ofile_'
'gml^_'
'clinic'
'Ul'
'quant'
'0x30'
'1500_'
'Dru'
'interpreter^_'
'cw^_'
'aur'
'Tipo^_'
'etr'
'testi'
'builds'
'Hw^_'
'/"^_'
'IDLE'
'E2'
'prs'
'factori'
'Man^_'
'tli'
'oslo'
'1100'
'Fault^_'
'was'
'intersection^_'
'nai'
'`."""_'
'∅g'
'Pb'
'Association^_'
'vehicle^_'
';)'
'processing\u^_'
'lazy^_'
'fw^_'
'ations_'
'qgis_'
'ries^_'
'ki_'
'Deferred^_'
'Known^_'
'Ord'
'ipr'
'wf^_'
'eps'
'LSTM^_'
'passes^_'
'lio'
'Qo'
'50.'
'marks_'
'D3^_'
'148_'
'145_'
'mile'
'backwards_'
'combined_'
'myf'
'Nr^_'
'subre'
'conversion\u^_'
'peri'
'Cp^_'
'&&'
'SYNC'
'Lat^_'
'LOAD'
'gnuradio\u^_'
'Pod^_'
'RECO'
'DETAIL'
'IGN'
'vocabulary^_'
'crash\u^_'
'digit'
'HOSTS_'
'asdf^_'
'Digit'
'isti'
'0x44'
'protein\u^_'
'Christ'
'multiple'
'moving\u^_'
'									'
'oq'
'impl'
'Continu'
'zo^_'
'trip^_'
'relations^_'
'Coo'
'jenkins^_'
'vis\u^_'
'travel'
'Cb'
'mcs'
'YS'
'word2'
'cpy'
'REG'
'ENUM'
'SERV'
'sfi'
'Science^_'
'Mut'
')+'
'kat'
'increase'
'texture\u^_'
'fds_'
'Oi'
'hmac_'
'formatted_'
'andle'
'nbe'
'ctor_'
'Gri'
'frequencies_'
'damage_'
'success'
'hone'
'rain^_'
'xpos_'
'authori'
'nucle'
'Pane'
'Black'
'fabric_'
'dil'
'certificates^_'
'fire_'
'ward'
'tera'
'launch_'
'modules\u^_'
'Stu'
'Sets_'
'erg'
'Now_'
'RECORD'
'fobj_'
'compatible_'
'unca'
'calendar\u^_'
'soap^_'
'processors_'
'CANCEL_'
'nanm'
'Rub'
'Bricklet^_'
'area'
'pxe'
'rust'
'ink^_'
'ups^_'
'actors_'
'Uuid_'
'RRBS^_'
'u2_'
'ain_'
'Frac'
'Logged^_'
'writable_'
'nder^_'
'jy'
'concat^_'
'trade_'
'eep'
'Availability^_'
'builder\u^_'
'survey\u^_'
'ncy^_'
'Yc'
'fsta'
'approximate'
'XP^_'
'Ptr_'
'CFG^_'
'EAS'
'BAS'
'pcs'
'turtle_'
'crypto\u^_'
'1.767'
'warn'
'aspect^_'
'faces^_'
'chap'
'Wizard^_'
'zzz'
'frag_'
'AES_'
',)^_'
'Sat'
'prime\u^_'
'Round'
'Translate'
'refl'
'pygments^_'
'maya'
'has_'
'deterministic'
'IMAGE_'
'/{}'_'
'tti'
'LESS'
'Vir'
'216^_'
'ipi'
'vis'
'concat\u^_'
'aine'
'Break'
'tria'
'intermediate^_'
'MAIL'
'spectr'
'dae'
'itm_'
'bc\u^_'
'Tensor'
'IH'
'xmm^_'
'sensi'
'creative'
'LABEL_'
'Counts^_'
'rsrc_'
'patt'
'implementation_'
'cdf_'
'Sys'
'ENT^_'
'skill^_'
'imd'
'eff'
'Coverage^_'
'fifo'
'aqu'
'rci'
'patche'
'newlines_'
'Cast'
'orbital'
'Sichuan^_'
'User'
'Implements^_'
'rnd'
'architecture_'
'FREE'
'TESTS_'
'Lc'
'programs^_'
'grp'
'finding^_'
'Quanti'
'logdir_'
'Gd'
'Overlap'
'risk^_'
'prot'
'poster^_'
'schedule'
'agn'
'],'
'Ty'
'Disabled_'
'relay^_'
'bf_'
'slim_'
'plt'
'yum^_'
'Extra'
'balancer'
'Colo'
'corr^_'
'normally^_'
'CONTROL\u^_'
'dod'
'cz^_'
'btc'
'wavelength^_'
'rd\u^_'
'excluded\u^_'
'angles^_'
'Once^_'
'newst'
'ables_'
'Fl'
'multiplier^_'
'\\']'
'prune'
'ipv4_'
'E-0'
'ology^_'
'filt'
'broadcast'
'leap'
'uste'
'PED'
'patches^_'
'Liste'
'paint^_'
'fib'
'Trans^_'
'langs_'
'him^_'
'aces'
'ILE'
'pio'
'Computer^_'
'station'
'indi'
'startt'
'Wn'
'Render'
'INT\u^_'
'pose^_'
'observed_'
'trimmed'
'resum'
'32'
'FONT\u^_'
'\\">^_'
'lut'
'hear'
'eggs^_'
'CLOUD'
'CTR'
'lay'
'ZO'
'Bun'
'interact'
'Tracking^_'
'Composite^_'
'masked^_'
'junk'
'flip^_'
'uris_'
'expressions_'
'oai'
'Readable^_'
'defines_'
'NG_'
'HOUR'
'Equi'
'nums^_'
'addstr_'
'Lab'
'30000'
'ether'
'untr'
'ken_'
'explicit\u^_'
'chosen\u^_'
'7.0_'
'tok'
'depth'
'Hp'
'"%'
'arche'
'organization\u^_'
'Bu^_'
'storing^_'
'gop'
'Bes'
'nominal'
'myo'
'DESC'
'C6'
'john^_'
'welcome^_'
'in\u_'
'atten'
'H2'
'Discover'
'continuous^_'
'glib'
'stone'
'courses_'
'came'
'xz'
'segment'
'5.2'
'0000003'
'mover'
'SCOPE'
'NETWORK\u^_'
'Writes^_'
'Analy'
'our\u^_'
'logy^_'
'fqdn_'
'Vote'
'MATRIX'
'ONE^_'
'mutation^_'
'spider_'
'mco'
'Disa'
'):'
'testcase^_'
'Metrics_'
'ttext'
'Cali'
'dpa'
'teardown_'
'si\u^_'
'posix^_'
'PROGRESS'
'EQ'
'OCC'
'0.999'
'triggers_'
'sqla'
'throughput'
'optimization'
'clos'
'"+'
'oneof'
'str2'
'inal'
'TIMESTAMP^_'
'Asc'
'001_'
'onfig_'
'minin'
'getch'
'ft\u^_'
'IMPLIED^_'
'SITE'
'most'
'weekday'
'TILE'
'QF'
'b0_'
'duplicate_'
'cpt'
'mdl'
'1b'
'0020'
'wrapper\u^_'
'sdi'
'43.'
'232^_'
'qre'
'narrowing_'
'Las'
'BACKEND^_'
'mca'
'ZD'
'Cid'
'FREQ'
'coding^_'
'OME'
'12.3'
'normalise'
'kr^_'
'Flow'
'C4'
'igat'
'deck'
'NUMERIC'
'wm^_'
'newe'
'coil'
'NCE'
'Migration^_'
'0o'
'guest_'
'restriction'
'hook'
'TCP_'
'Not_'
'mds'
'indicator\u^_'
'gh_'
'[:^_'
'0x08_'
';}'
'openconfig^_'
'pir'
'compiler\u^_'
'Stud'
'RW^_'
'IMAGES'
'WINDOW\u^_'
'disks^_'
'Vr'
'stone^_'
'@'_'
'Mn'
'thrift'
'Attrib^_'
'Art^_'
'rele'
'2400'
'allocated^_'
'Bh^_'
'undi'
'kube'
'MS_'
'orte'
''<%^_'
'"∅^_'
'tuple'
'ruleset'
'lamb'
'ight^_'
'capi'
'Henan^_'
'Lists_'
'learn_'
'diag^_'
'orphan'
'OM^_'
'atan'
'opr'
'Circle_'
'CHAIN'
'MODEL^_'
'Send_'
'shut'
'pow^_'
'mym'
'Rat'
'Kan'
'Dashboard^_'
'Bearer^_'
'"&"_'
'Df'
'):\\^_'
'Alb'
'collapse^_'
'Grab'
'synchronize'
'spon'
'proposal_'
'myst'
'dis_'
'Import_'
'!"'
'gold\u^_'
'abilities_'
'trigger'
'threat'
'plaintext_'
'modal^_'
'Samples_'
'macro\u^_'
'dbs_'
'vmware^_'
'Ras'
'pree'
'Diagnostic'
'dates'
'Zip'
'Slots^_'
'hand\u^_'
'M1'
'Bo^_'
'Balancer^_'
'mps'
'Tx'
'<>^_'
'datatypes_'
'CON'
'hoste'
'courses^_'
'tmdb'
'summaries_'
'Sky^_'
'Coin'
'qual_'
'lab\u^_'
'BL^_'
'Hn'
'Par^_'
'}(^_'
'rica'
'Band'
'534^_'
'tco'
'Song^_'
'nof'
'ren^_'
'records\u^_'
'converts^_'
'Pk'
'replica_'
'fact'
')</^_'
'Timed^_'
'peg'
'SAVE'
'",'
'subscript'
'cascade_'
'<-'
'"=='
'tagged^_'
'=\\'
'uv_'
'subtree'
'composite^_'
'PRIV'
'212_'
'\u\u\u_'
'Data\u^_'
'notice'
'bj^_'
'between\u^_'
'Operational^_'
'X1_'
'wz'
'ride'
'paste_'
'matching_'
'invert_'
'colla'
'tad'
'lod'
'summ'
'lun^_'
'PC_'
'129_'
'acknowledge'
'Vl^_'
'CASE'
'206^_'
'231^_'
'mirror_'
'Token'
'Hebei^_'
'crop'
'uring^_'
';</^_'
'sup^_'
'Git'
'woo'
'executor^_'
'cloned'
'PQ'
'svc^_'
'Ti^_'
'Cpp^_'
'opi'
'finditer_'
'FIELD^_'
'Auth'
'ylo'
'disease'
'c∅^_'
'sia'
'kv^_'
'FILTER\u^_'
'BAD^_'
'ult'
'neighbors^_'
'amqp'
'onu'
'Distr'
'Allocation^_'
'minibatch'
'curse'
'DH^_'
'worksheet'
'Matt'
'aux'
'TAB\u^_'
'unmo'
'file2_'
'product'
'amd^_'
'Swi'
'then_'
'lvl'
'Patch_'
'prio'
'Clip'
'recover'
'0300'
'plate^_'
'bonds_'
'jump_'
'maintenance^_'
'Pull^_'
'Dense^_'
'ian_'
'gaussian\u^_'
'god'
'List'
'frequency\u^_'
'neu'
'Matches^_'
'subpa'
'fold\u^_'
'bridge'
'e+0'
'CAD^_'
'rgb'
'lter'
'likelihood^_'
'credential_'
'Train'
'proj'
'nth'
'locks_'
'cyan^_'
'\u\u\u'
'STANDARD'
'vif\u^_'
'ode\u^_'
'iz^_'
'obj2_'
'169^_'
'psy'
'own'
'crit'
'spot^_'
'presentation'
'dato'
'CREATE_'
'voice_'
'Back_'
'ford^_'
'Req_'
''{:^_'
'XU'
'Network'
'ING'
'uninstall'
'slice'
'unf'
'MU^_'
'nus'
'a0'
'LOW_'
'ELE'
'screens'
'psr'
'bmi'
'pour^_'
'cxx^_'
'211_'
'PER'
'cycles^_'
'Hand'
'E7_'
'Finder_'
'ledger'
'dct'
'astr'
'that\u^_'
'stroke_'
'spike'
'cash'
'Don'
'mbo'
'personal^_'
'ines_'
'E4'
'SCALE'
'shares^_'
'nodes'
'tight^_'
'adj^_'
'Td'
'Av^_'
'liquid'
'"}}'
'ender'
'gd_'
'MK^_'
'newname_'
'City_'
'ous'
'buff'
'claim^_'
'Shar'
'SEP'
'pps'
'+---'
'usuario_'
'cm\u^_'
'spam'
'∅v'
'10000'
'wl^_'
'birth^_'
'RW'
'remo'
'principal_'
'FLAG^_'
'Cal^_'
'ratings_'
'Disp'
'onet'
'il\u^_'
'Natural^_'
'director'
'PFNGL'
'Cert'
'quad'
'posy_'
'Move'
'decomposition'
'userdata_'
'sne'
'libg'
'0x14_'
'SIS'
'Addresses^_'
'heuristic'
'raph'
'periodic^_'
'}"""_'
'ource^_'
'hun'
'enr'
'Punctuation_'
'BLOCK^_'
'returned\u^_'
'phases_'
'cript_'
'Popup^_'
'Denied_'
'nho'
'Lsizei_'
'DC_'
'blog\u^_'
'MQ'
'Enumeration^_'
'posx_'
'circuit'
'ansible\u^_'
'body'
'unix'
'yr^_'
'tank'
'firmware^_'
'∅ri'
'IRC^_'
'Uv'
'Bus_'
'BI^_'
'152^_'
'lexer'
'Gold'
'ads_'
'AN\u^_'
'joint_'
'mic^_'
'PI_'
'ARTI'
'AMI'
'gus'
'Pressure^_'
'133^_'
'AJ'
'went^_'
'iam\u^_'
'nw^_'
'ngs_'
'amplitude^_'
'grupo'
'STORAGE\u^_'
'scatter'
'Dot'
'odd^_'
'lou'
'ane^_'
'Technology^_'
'gpx'
'Value'
'reserved\u^_'
'}*'
'Vj^_'
'CONST'
'20'
'kw\u^_'
'cancelled^_'
'Facebook^_'
'recid_'
'270_'
'ved'
'QL'
'pair'
'R1'
[...]
